{
  "version": "1.0",
  "truncation": null,
  "padding": null,
  "added_tokens": [
    {
      "id": 0,
      "content": "<unk>",
      "single_word": false,
      "lstrip": false,
      "rstrip": false,
      "normalized": false,
      "special": true
    },
    {
      "id": 1,
      "content": "<pad>",
      "single_word": false,
      "lstrip": false,
      "rstrip": false,
      "normalized": false,
      "special": true
    },
    {
      "id": 2,
      "content": "<bos>",
      "single_word": false,
      "lstrip": false,
      "rstrip": false,
      "normalized": false,
      "special": true
    },
    {
      "id": 3,
      "content": "<eos>",
      "single_word": false,
      "lstrip": false,
      "rstrip": false,
      "normalized": false,
      "special": true
    }
  ],
  "normalizer": {
    "type": "NFKC"
  },
  "pre_tokenizer": {
    "type": "ByteLevel",
    "add_prefix_space": false,
    "trim_offsets": true,
    "use_regex": true
  },
  "post_processor": {
    "type": "ByteLevel",
    "add_prefix_space": true,
    "trim_offsets": true,
    "use_regex": true
  },
  "decoder": {
    "type": "ByteLevel",
    "add_prefix_space": true,
    "trim_offsets": true,
    "use_regex": true
  },
  "model": {
    "type": "BPE",
    "dropout": null,
    "unk_token": null,
    "continuing_subword_prefix": null,
    "end_of_word_suffix": null,
    "fuse_unk": false,
    "byte_fallback": false,
    "ignore_merges": false,
    "vocab": {
      "<unk>": 0,
      "<pad>": 1,
      "<bos>": 2,
      "<eos>": 3,
      "!": 4,
      "$": 5,
      "&": 6,
      "'": 7,
      ",": 8,
      "-": 9,
      ".": 10,
      "3": 11,
      ":": 12,
      ";": 13,
      "?": 14,
      "A": 15,
      "B": 16,
      "C": 17,
      "D": 18,
      "E": 19,
      "F": 20,
      "G": 21,
      "H": 22,
      "I": 23,
      "J": 24,
      "K": 25,
      "L": 26,
      "M": 27,
      "N": 28,
      "O": 29,
      "P": 30,
      "Q": 31,
      "R": 32,
      "S": 33,
      "T": 34,
      "U": 35,
      "V": 36,
      "W": 37,
      "X": 38,
      "Y": 39,
      "Z": 40,
      "a": 41,
      "b": 42,
      "c": 43,
      "d": 44,
      "e": 45,
      "f": 46,
      "g": 47,
      "h": 48,
      "i": 49,
      "j": 50,
      "k": 51,
      "l": 52,
      "m": 53,
      "n": 54,
      "o": 55,
      "p": 56,
      "q": 57,
      "r": 58,
      "s": 59,
      "t": 60,
      "u": 61,
      "v": 62,
      "w": 63,
      "x": 64,
      "y": 65,
      "z": 66,
      "Ċ": 67,
      "Ġ": 68,
      "Ġt": 69,
      "he": 70,
      "Ġa": 71,
      "ou": 72,
      "Ġs": 73,
      "Ġm": 74,
      "in": 75,
      "Ġw": 76,
      "re": 77,
      "ha": 78,
      "nd": 79,
      "Ġthe": 80,
      "Ġb": 81,
      "is": 82,
      "or": 83,
      "Ġf": 84,
      "er": 85,
      "ll": 86,
      "it": 87,
      "on": 88,
      "Ġd": 89,
      "Ġc": 90,
      "es": 91,
      "en": 92,
      "Ġn": 93,
      "Ġl": 94,
      "Ġy": 95,
      "Ġth": 96,
      "ar": 97,
      "Ġh": 98,
      "Ġo": 99,
      "Ġto": 100,
      "Ġyou": 101,
      "Ġp": 102,
      "hat": 103,
      "ĠI": 104,
      "Ġhe": 105,
      "ve": 106,
      "ot": 107,
      "st": 108,
      "Ġand": 109,
      "ow": 110,
      "ing": 111,
      "an": 112,
      "Ġof": 113,
      "om": 114,
      "Ġg": 115,
      "at": 116,
      "Ġbe": 117,
      "se": 118,
      "Ġmy": 119,
      "Ġin": 120,
      "ce": 121,
      "Ġha": 122,
      "le": 123,
      "ay": 124,
      "ld": 125,
      "ir": 126,
      "et": 127,
      "ed": 128,
      "ut": 129,
      "Ġme": 130,
      "im": 131,
      "ith": 132,
      "'s": 133,
      "Ġnot": 134,
      "ch": 135,
      "Ġthat": 136,
      "Ġis": 137,
      "gh": 138,
      "And": 139,
      "Ġfor": 140,
      "ke": 141,
      "Ġu": 142,
      "our": 143,
      "Ġwe": 144,
      "oo": 145,
      "ill": 146,
      "Ġe": 147,
      "her": 148,
      "Ġwith": 149,
      "ent": 150,
      "Ġit": 151,
      "Ġyour": 152,
      "ad": 153,
      "ri": 154,
      "Ġthou": 155,
      "Ġst": 156,
      "'d": 157,
      "Ġk": 158,
      "ome": 159,
      "Ġhis": 160,
      "ght": 161,
      "EN": 162,
      "ord": 163,
      "id": 164,
      "The": 165,
      "as": 166,
      "Ġre": 167,
      "Ġhave": 168,
      "IN": 169,
      "ly": 170,
      "ra": 171,
      "Ġli": 172,
      "Ġhim": 173,
      "ur": 174,
      "Ġthis": 175,
      "al": 176,
      "IO": 177,
      "Ġso": 178,
      "Ġas": 179,
      "Ġde": 180,
      "Ġon": 181,
      "ore": 182,
      "ro": 183,
      "AR": 184,
      "hi": 185,
      "ould": 186,
      "ood": 187,
      "ck": 188,
      "ain": 189,
      "ver": 190,
      "est": 191,
      "Ġthy": 192,
      "Ġsha": 193,
      "ess": 194,
      "ea": 195,
      "Ġdo": 196,
      "Ġwill": 197,
      "am": 198,
      "Ġno": 199,
      "Ġbut": 200,
      "us": 201,
      "and": 202,
      "US": 203,
      "if": 204,
      "Ġse": 205,
      "ge": 206,
      "Th": 207,
      "Ġall": 208,
      "ake": 209,
      "Ġsu": 210,
      "To": 211,
      "Ġher": 212,
      "ru": 213,
      "ion": 214,
      "th": 215,
      "Ġan": 216,
      "ter": 217,
      "ard": 218,
      "Ġlo": 219,
      "han": 220,
      "ell": 221,
      "ear": 222,
      "Ġsp": 223,
      "Ġthee": 224,
      "Ġour": 225,
      "Ġfa": 226,
      "Ġshall": 227,
      "Ġby": 228,
      "UC": 229,
      "il": 230,
      "Ġare": 231,
      "ING": 232,
      "ĠC": 233,
      "rom": 234,
      "Ġne": 235,
      "ho": 236,
      "Ġkn": 237,
      "AN": 238,
      "ĠR": 239,
      "That": 240,
      "Ġv": 241,
      "ER": 242,
      "OR": 243,
      "ast": 244,
      "ct": 245,
      "ous": 246,
      "Ġwhat": 247,
      "ight": 248,
      "Ġsh": 249,
      "ul": 250,
      "ET": 251,
      "Ġ'": 252,
      "ant": 253,
      "ES": 254,
      "Ġup": 255,
      "sel": 256,
      "qu": 257,
      "But": 258,
      "art": 259,
      "Ġgood": 260,
      "row": 261,
      "ine": 262,
      "ath": 263,
      "Ġlord": 264,
      "hich": 265,
      "nt": 266,
      "ust": 267,
      "'ll": 268,
      "one": 269,
      "Ġpr": 270,
      "Ġcom": 271,
      "Ġat": 272,
      "Ġman": 273,
      "What": 274,
      "ĠM": 275,
      "Ġwhe": 276,
      "ĠE": 277,
      "KING": 278,
      "Ġam": 279,
      "end": 280,
      "ic": 281,
      "Ġcon": 282,
      "ble": 283,
      "ry": 284,
      "ong": 285,
      "ie": 286,
      "ive": 287,
      "Ġbl": 288,
      "Ġfrom": 289,
      "ven": 290,
      "ĠG": 291,
      "For": 292,
      "Ġshe": 293,
      "em": 294,
      "Ġgo": 295,
      "are": 296,
      "Ġmore": 297,
      "IC": 298,
      "out": 299,
      "Ġthem": 300,
      "au": 301,
      "Ġwas": 302,
      "oth": 303,
      "other": 304,
      "He": 305,
      "Ġsir": 306,
      "ol": 307,
      "Ġnow": 308,
      "ĠL": 309,
      "Ġhat": 310,
      "ost": 311,
      "Ġif": 312,
      "LO": 313,
      "ind": 314,
      "Ġthere": 315,
      "Ġwould": 316,
      "Ġknow": 317,
      "Ġcan": 318,
      "ers": 319,
      "IUS": 320,
      "ep": 321,
      "self": 322,
      "ARD": 323,
      "ather": 324,
      "fe": 325,
      "ond": 326,
      "res": 327,
      "ate": 328,
      "Ġsay": 329,
      "Ġhere": 330,
      "Ġlove": 331,
      "Ġsw": 332,
      "Ġtheir": 333,
      "Ġbr": 334,
      "pp": 335,
      "Ġor": 336,
      "--": 337,
      "all": 338,
      "ĠS": 339,
      "Ġthan": 340,
      "Ġthen": 341,
      "Ġking": 342,
      "Ġus": 343,
      "ĠO": 344,
      "ĠB": 345,
      "Ġthey": 346,
      "Ġar": 347,
      "od": 348,
      "My": 349,
      "Ġlet": 350,
      "Ġun": 351,
      "ig": 352,
      "Ġwor": 353,
      "ure": 354,
      "ink": 355,
      "ĠH": 356,
      "ort": 357,
      "hy": 358,
      "ĠV": 359,
      "ame": 360,
      "fore": 361,
      "As": 362,
      "Ġmay": 363,
      "el": 364,
      "Ġqu": 365,
      "Ġcome": 366,
      "ook": 367,
      "Whe": 368,
      "ish": 369,
      "LI": 370,
      "Ġwell": 371,
      "KE": 372,
      "ves": 373,
      "Ġj": 374,
      "Ġone": 375,
      "Ġhath": 376,
      "irst": 377,
      "You": 378,
      "Ġmake": 379,
      "reat": 380,
      "ak": 381,
      "gain": 382,
      "Ġmust": 383,
      "ound": 384,
      "ng": 385,
      "Ġgra": 386,
      "Ġwere": 387,
      "Ġho": 388,
      "ci": 389,
      "Ġsee": 390,
      "Ġlike": 391,
      "ue": 392,
      "eak": 393,
      "TIO": 394,
      "Ġshould": 395,
      "ity": 396,
      "Ġpro": 397,
      "ĠP": 398,
      "Ġsa": 399,
      "Ġmad": 400,
      "um": 401,
      "Ġpl": 402,
      "Ġfather": 403,
      "RO": 404,
      "AU": 405,
      "Ġhad": 406,
      "Ġdid": 407,
      "pe": 408,
      "ime": 409,
      "Ġupon": 410,
      "ice": 411,
      "ON": 412,
      "Ġtoo": 413,
      "ence": 414,
      "ĠW": 415,
      "ward": 416,
      "ist": 417,
      "Ġdeath": 418,
      "own": 419,
      "man": 420,
      "ose": 421,
      "Ġen": 422,
      "un": 423,
      "IS": 424,
      "ful": 425,
      "nce": 426,
      "Ġr": 427,
      "Ġpo": 428,
      "Ġspeak": 429,
      "de": 430,
      "entle": 431,
      "io": 432,
      "Ġout": 433,
      "pt": 434,
      "Ġwhich": 435,
      "ICH": 436,
      "Ġfri": 437,
      "OL": 438,
      "DU": 439,
      "Ġagain": 440,
      "DUKE": 441,
      "Ġhow": 442,
      "EL": 443,
      "ick": 444,
      "ĠA": 445,
      "Ġtru": 446,
      "Ġheart": 447,
      "Ġyet": 448,
      "Ġhand": 449,
      "CA": 450,
      "Thou": 451,
      "very": 452,
      "ICHARD": 453,
      "ENTIO": 454,
      "With": 455,
      "ign": 456,
      "Ġsome": 457,
      "ance": 458,
      "Ġwho": 459,
      "Which": 460,
      "If": 461,
      "Ġwhen": 462,
      "ies": 463,
      "Ġmar": 464,
      "ire": 465,
      "Ġmine": 466,
      "Ġhon": 467,
      "har": 468,
      "orn": 469,
      "Ġoff": 470,
      "ince": 471,
      "INC": 472,
      "In": 473,
      "ack": 474,
      "ĠY": 475,
      "Ġson": 476,
      "Ġdis": 477,
      "Ġal": 478,
      "'t": 479,
      "We": 480,
      "uch": 481,
      "wn": 482,
      "Ġhea": 483,
      "First": 484,
      "oy": 485,
      "Ġtime": 486,
      "Ġhear": 487,
      "AB": 488,
      "ec": 489,
      "Ġsuch": 490,
      "ness": 491,
      "LA": 492,
      "Ġbrother": 493,
      "Of": 494,
      "Ġblood": 495,
      "ither": 496,
      "Ġab": 497,
      "UE": 498,
      "Why": 499,
      "Ġthese": 500,
      "No": 501,
      "Ġgive": 502,
      "Ġfo": 503,
      "Ġday": 504,
      "ĠII": 505,
      "Ġear": 506,
      "ĠRICHARD": 507,
      "TER": 508,
      "Ġro": 509,
      "ise": 510,
      "Ġex": 511,
      "Ġlife": 512,
      "This": 513,
      "eet": 514,
      "Ġtell": 515,
      "So": 516,
      "Ġlook": 517,
      "Ġthink": 518,
      "UCH": 519,
      "oul": 520,
      "Ġword": 521,
      "Ġey": 522,
      "Ġwhere": 523,
      "ag": 524,
      "age": 525,
      "een": 526,
      "ther": 527,
      "GLO": 528,
      "Ġtake": 529,
      "UCES": 530,
      "Ġfriend": 531,
      "GLOUCES": 532,
      "GLOUCESTER": 533,
      "ef": 534,
      "erv": 535,
      "ady": 536,
      "rown": 537,
      "Ġdes": 538,
      "ings": 539,
      "ave": 540,
      "not": 541,
      "Ġgentle": 542,
      "urse": 543,
      "How": 544,
      "RY": 545,
      "Ġri": 546,
      "ase": 547,
      "QUE": 548,
      "way": 549,
      "INCENTIO": 550,
      "QUEEN": 551,
      "Ġlea": 552,
      "tis": 553,
      "ĠOF": 554,
      "Ġart": 555,
      "Ġmost": 556,
      "Where": 557,
      "Ġhonour": 558,
      "LAN": 559,
      "Ġmuch": 560,
      "Ġsl": 561,
      "Ġwar": 562,
      "Ġfl": 563,
      "urn": 564,
      "Ġmade": 565,
      "ment": 566,
      "Now": 567,
      "Ġhast": 568,
      "Ġtw": 569,
      "Ġfear": 570,
      "ĠT": 571,
      "Ġbet": 572,
      "ENRY": 573,
      "aught": 574,
      "Is": 575,
      "LE": 576,
      "ber": 577,
      "ff": 578,
      "ĠGod": 579,
      "ough": 580,
      "ved": 581,
      "Ġbre": 582,
      "cc": 583,
      "ower": 584,
      "Ġnever": 585,
      "ĠVINCENTIO": 586,
      "Be": 587,
      "ap": 588,
      "igh": 589,
      "ĠK": 590,
      "Ġgreat": 591,
      "Ġfair": 592,
      "Who": 593,
      "ee": 594,
      "tle": 595,
      "Ġmen": 596,
      "orrow": 597,
      "Ġcou": 598,
      "Ġnew": 599,
      "ĠRome": 600,
      "aster": 601,
      "uke": 602,
      "iz": 603,
      "old": 604,
      "ORK": 605,
      "Ġpart": 606,
      "ation": 607,
      "INIUS": 608,
      "ss": 609,
      "ree": 610,
      "ide": 611,
      "Or": 612,
      "Ġcall": 613,
      "ple": 614,
      "Ġany": 615,
      "Ġheaven": 616,
      "Ġad": 617,
      "Ġcomm": 618,
      "It": 619,
      "Your": 620,
      "Ġstand": 621,
      "Ġcannot": 622,
      "Ġtrue": 623,
      "DW": 624,
      "Ġname": 625,
      "Ġbeen": 626,
      "ears": 627,
      "DWARD": 628,
      "Ġcl": 629,
      "Ġpre": 630,
      "Ġsweet": 631,
      ",--": 632,
      "Ġdoth": 633,
      "Ġpray": 634,
      "hing": 635,
      "PET": 636,
      "UM": 637,
      "Ġnoble": 638,
      "LUC": 639,
      "MEN": 640,
      "TH": 641,
      "Ġown": 642,
      "Ġple": 643,
      "ass": 644,
      "ĠD": 645,
      "ouse": 646,
      "Ġper": 647,
      "Ay": 648,
      "Come": 649,
      "ull": 650,
      "There": 651,
      "Ġwr": 652,
      "Ġdone": 653,
      "ife": 654,
      "aw": 655,
      "Ġtr": 656,
      "Ġway": 657,
      "Ġother": 658,
      "Ġhead": 659,
      "Ġmean": 660,
      "li": 661,
      "red": 662,
      "When": 663,
      "dward": 664,
      "Ġnor": 665,
      "EO": 666,
      "MEO": 667,
      "Ġsc": 668,
      "Ġsoul": 669,
      "Ġpres": 670,
      "ROMEO": 671,
      "ace": 672,
      "ving": 673,
      "Ġnight": 674,
      "Ġbear": 675,
      "ENIUS": 676,
      "aint": 677,
      "ĠCl": 678,
      "Ġworld": 679,
      "MENENIUS": 680,
      "ger": 681,
      "Ġbefore": 682,
      "ause": 683,
      "Ġboth": 684,
      "Ġqueen": 685,
      "per": 686,
      "Then": 687,
      "aughter": 688,
      "RUCH": 689,
      "ock": 690,
      "Ġchi": 691,
      "Here": 692,
      "PETRUCH": 693,
      "PETRUCHIO": 694,
      "OM": 695,
      "able": 696,
      "Ġvery": 697,
      "Ġdead": 698,
      "TES": 699,
      "By": 700,
      "Ġra": 701,
      "ite": 702,
      "Than": 703,
      "the": 704,
      "Ġke": 705,
      "ab": 706,
      "les": 707,
      "ĠF": 708,
      "Ġdown": 709,
      "to": 710,
      "Ġapp": 711,
      "Ġmyself": 712,
      "Ġcont": 713,
      "GR": 714,
      "HA": 715,
      "Ġwh": 716,
      "Ġrem": 717,
      "ĠLord": 718,
      "Ġarm": 719,
      "Ġthus": 720,
      "IOLAN": 721,
      "ilt": 722,
      "ORIOLAN": 723,
      "ORIOLANUS": 724,
      "CORIOLANUS": 725,
      "Sec": 726,
      "Ġleave": 727,
      "Second": 728,
      "Ġbeing": 729,
      "ction": 730,
      "ĠEdward": 731,
      "Nor": 732,
      "sw": 733,
      "Ġunt": 734,
      "ress": 735,
      "Ġgrace": 736,
      "less": 737,
      "Ġbeg": 738,
      "Ġeyes": 739,
      "BA": 740,
      "land": 741,
      "Ġmother": 742,
      "ran": 743,
      "Ġma": 744,
      "Ġold": 745,
      "Ġim": 746,
      "INA": 747,
      "ĠEDWARD": 748,
      "itiz": 749,
      "itizen": 750,
      "ps": 751,
      "Ġlong": 752,
      "Ġever": 753,
      "ĠMar": 754,
      "Ġlive": 755,
      "Ġchild": 756,
      "Let": 757,
      "me": 758,
      "Ġwife": 759,
      "She": 760,
      "Ġaway": 761,
      "Ġrep": 762,
      "ĠIII": 763,
      "Ġwom": 764,
      "Ġpoor": 765,
      "Ġfriends": 766,
      "come": 767,
      "for": 768,
      "wick": 769,
      "Ġaf": 770,
      "Ġmight": 771,
      "nder": 772,
      "Ġstay": 773,
      "eace": 774,
      "ks": 775,
      "oud": 776,
      "Ġdie": 777,
      "atch": 778,
      "led": 779,
      "ĠJ": 780,
      "Ġru": 781,
      "arwick": 782,
      "Ġcomes": 783,
      "Ġcons": 784,
      "Ġcrown": 785,
      "ows": 786,
      "Ġmany": 787,
      "Ġpe": 788,
      "Tis": 789,
      "hall": 790,
      "ison": 791,
      "Ġle": 792,
      "ĠYORK": 793,
      "lo": 794,
      "uck": 795,
      "iss": 796,
      "Ġhouse": 797,
      "Ġhar": 798,
      "Ġthought": 799,
      "Ġrest": 800,
      "ISAB": 801,
      "ELLA": 802,
      "ISABELLA": 803,
      "ian": 804,
      "erc": 805,
      "Ġcour": 806,
      "RAN": 807,
      "Ġent": 808,
      "Ġlie": 809,
      "che": 810,
      "Ġset": 811,
      "JU": 812,
      "well": 813,
      "ors": 814,
      "atter": 815,
      "LIET": 816,
      "ONTES": 817,
      "ĠWarwick": 818,
      "LEONTES": 819,
      "JULIET": 820,
      "Nay": 821,
      "int": 822,
      "ittle": 823,
      "Ġdaughter": 824,
      "Ġgone": 825,
      "Ġbetter": 826,
      "MI": 827,
      "rant": 828,
      "ought": 829,
      "Ġprince": 830,
      "DY": 831,
      "His": 832,
      "Ġtong": 833,
      "Ġwit": 834,
      "Ġnothing": 835,
      "CE": 836,
      "VOL": 837,
      "ENCE": 838,
      "LADY": 839,
      "BR": 840,
      "TA": 841,
      "cl": 842,
      "ied": 843,
      "Ġkeep": 844,
      "Go": 845,
      "Well": 846,
      "ces": 847,
      "ious": 848,
      "os": 849,
      "Ġsle": 850,
      "Ġres": 851,
      "hard": 852,
      "Ġnews": 853,
      "SIC": 854,
      "ft": 855,
      "ier": 856,
      "Ġtri": 857,
      "Ġmo": 858,
      "ret": 859,
      "ont": 860,
      "Ġthose": 861,
      "Ġgri": 862,
      "ool": 863,
      "une": 864,
      "SICINIUS": 865,
      "Not": 866,
      "Ġlittle": 867,
      "Ġlords": 868,
      "Ġagainst": 869,
      "ford": 870,
      "Ġbest": 871,
      "Ġhour": 872,
      "Ġhence": 873,
      "ardon": 874,
      "akes": 875,
      "lse": 876,
      "Ġacc": 877,
      "sed": 878,
      "Ġface": 879,
      "ult": 880,
      "Ġfoll": 881,
      "On": 882,
      "ew": 883,
      "ud": 884,
      "ark": 885,
      "Ġyoung": 886,
      "Ġend": 887,
      "ork": 888,
      "Ġthing": 889,
      "Ġstill": 890,
      "Ġkind": 891,
      "ield": 892,
      "ST": 893,
      "Ġpri": 894,
      "Ġpur": 895,
      "alk": 896,
      "Thy": 897,
      "Ġcomp": 898,
      "LUCIO": 899,
      "ale": 900,
      "ins": 901,
      "ert": 902,
      "Ġput": 903,
      "Ġpower": 904,
      "ĠIV": 905,
      "ichard": 906,
      "Ġtwo": 907,
      "Ġcha": 908,
      "Ġhimself": 909,
      "Pro": 910,
      "iness": 911,
      "Ġfirst": 912,
      "Ġpeace": 913,
      "Ġgu": 914,
      "Ġelse": 915,
      "ried": 916,
      "Ġdear": 917,
      "cious": 918,
      "Sir": 919,
      "ail": 920,
      "ty": 921,
      "ason": 922,
      "hile": 923,
      "Ġsub": 924,
      "Ġunto": 925,
      "ile": 926,
      "ray": 927,
      "Ġtill": 928,
      "Ġsm": 929,
      "uty": 930,
      "RI": 931,
      "ZAB": 932,
      "ect": 933,
      "Ġtra": 934,
      "Ġbid": 935,
      "Ġback": 936,
      "Ġdre": 937,
      "Ġhus": 938,
      "ETH": 939,
      "ĠELI": 940,
      "Ġtherefore": 941,
      "Ġearth": 942,
      "Ġwords": 943,
      "Ġcount": 944,
      "ZABETH": 945,
      "ĠELIZABETH": 946,
      "Have": 947,
      "band": 948,
      "ius": 949,
      "men": 950,
      "ople": 951,
      "yal": 952,
      "Ġfind": 953,
      "Ġcould": 954,
      "Ġtongue": 955,
      "orse": 956,
      "Ġlady": 957,
      "Ġthine": 958,
      "Ġneed": 959,
      "ĠYork": 960,
      "HENRY": 961,
      "get": 962,
      "tw": 963,
      "Ġtre": 964,
      "Ġfell": 965,
      "enry": 966,
      "Ġhigh": 967,
      "Ġforth": 968,
      "Ġhope": 969,
      "MER": 970,
      "St": 971,
      "lp": 972,
      "Ġhome": 973,
      "vere": 974,
      "eth": 975,
      "Ġseem": 976,
      "eech": 977,
      "ĠRomeo": 978,
      "Ġhusband": 979,
      "CL": 980,
      "Ġduke": 981,
      "Ġright": 982,
      "GE": 983,
      "WAR": 984,
      "WIC": 985,
      "fort": 986,
      "ĠWhat": 987,
      "rer": 988,
      "Ġban": 989,
      "uth": 990,
      "Ġthough": 991,
      "ĠVI": 992,
      "WARWIC": 993,
      "WARWICK": 994,
      "UT": 995,
      "ach": 996,
      "ix": 997,
      "Ġmind": 998,
      "Ġbra": 999,
      "ister": 1000,
      "Ġche": 1001,
      "Ġchar": 1002,
      "hip": 1003,
      "ĠHENRY": 1004,
      "Ġpeople": 1005,
      "Nurse": 1006,
      "ds": 1007,
      "ged": 1008,
      "ĠCitizen": 1009,
      "ren": 1010,
      "They": 1011,
      "ĠHenry": 1012,
      "HAM": 1013,
      "IAN": 1014,
      "LET": 1015,
      "PU": 1016,
      "eed": 1017,
      "Ġbri": 1018,
      "Ġchan": 1019,
      "Ġlaw": 1020,
      "ĠRichard": 1021,
      "Ġshow": 1022,
      "Ġconf": 1023
    },
    "merges": [
      [
        "Ġ",
        "t"
      ],
      [
        "h",
        "e"
      ],
      [
        "Ġ",
        "a"
      ],
      [
        "o",
        "u"
      ],
      [
        "Ġ",
        "s"
      ],
      [
        "Ġ",
        "m"
      ],
      [
        "i",
        "n"
      ],
      [
        "Ġ",
        "w"
      ],
      [
        "r",
        "e"
      ],
      [
        "h",
        "a"
      ],
      [
        "n",
        "d"
      ],
      [
        "Ġt",
        "he"
      ],
      [
        "Ġ",
        "b"
      ],
      [
        "i",
        "s"
      ],
      [
        "o",
        "r"
      ],
      [
        "Ġ",
        "f"
      ],
      [
        "e",
        "r"
      ],
      [
        "l",
        "l"
      ],
      [
        "i",
        "t"
      ],
      [
        "o",
        "n"
      ],
      [
        "Ġ",
        "d"
      ],
      [
        "Ġ",
        "c"
      ],
      [
        "e",
        "s"
      ],
      [
        "e",
        "n"
      ],
      [
        "Ġ",
        "n"
      ],
      [
        "Ġ",
        "l"
      ],
      [
        "Ġ",
        "y"
      ],
      [
        "Ġt",
        "h"
      ],
      [
        "a",
        "r"
      ],
      [
        "Ġ",
        "h"
      ],
      [
        "Ġ",
        "o"
      ],
      [
        "Ġt",
        "o"
      ],
      [
        "Ġy",
        "ou"
      ],
      [
        "Ġ",
        "p"
      ],
      [
        "ha",
        "t"
      ],
      [
        "Ġ",
        "I"
      ],
      [
        "Ġ",
        "he"
      ],
      [
        "v",
        "e"
      ],
      [
        "o",
        "t"
      ],
      [
        "s",
        "t"
      ],
      [
        "Ġa",
        "nd"
      ],
      [
        "o",
        "w"
      ],
      [
        "in",
        "g"
      ],
      [
        "a",
        "n"
      ],
      [
        "Ġo",
        "f"
      ],
      [
        "o",
        "m"
      ],
      [
        "Ġ",
        "g"
      ],
      [
        "a",
        "t"
      ],
      [
        "Ġb",
        "e"
      ],
      [
        "s",
        "e"
      ],
      [
        "Ġm",
        "y"
      ],
      [
        "Ġ",
        "in"
      ],
      [
        "c",
        "e"
      ],
      [
        "Ġ",
        "ha"
      ],
      [
        "l",
        "e"
      ],
      [
        "a",
        "y"
      ],
      [
        "l",
        "d"
      ],
      [
        "i",
        "r"
      ],
      [
        "e",
        "t"
      ],
      [
        "e",
        "d"
      ],
      [
        "u",
        "t"
      ],
      [
        "Ġm",
        "e"
      ],
      [
        "i",
        "m"
      ],
      [
        "it",
        "h"
      ],
      [
        "'",
        "s"
      ],
      [
        "Ġn",
        "ot"
      ],
      [
        "c",
        "h"
      ],
      [
        "Ġt",
        "hat"
      ],
      [
        "Ġ",
        "is"
      ],
      [
        "g",
        "h"
      ],
      [
        "A",
        "nd"
      ],
      [
        "Ġf",
        "or"
      ],
      [
        "k",
        "e"
      ],
      [
        "Ġ",
        "u"
      ],
      [
        "ou",
        "r"
      ],
      [
        "Ġw",
        "e"
      ],
      [
        "o",
        "o"
      ],
      [
        "i",
        "ll"
      ],
      [
        "Ġ",
        "e"
      ],
      [
        "he",
        "r"
      ],
      [
        "Ġw",
        "ith"
      ],
      [
        "en",
        "t"
      ],
      [
        "Ġ",
        "it"
      ],
      [
        "Ġyou",
        "r"
      ],
      [
        "a",
        "d"
      ],
      [
        "r",
        "i"
      ],
      [
        "Ġth",
        "ou"
      ],
      [
        "Ġs",
        "t"
      ],
      [
        "'",
        "d"
      ],
      [
        "Ġ",
        "k"
      ],
      [
        "om",
        "e"
      ],
      [
        "Ġh",
        "is"
      ],
      [
        "gh",
        "t"
      ],
      [
        "E",
        "N"
      ],
      [
        "or",
        "d"
      ],
      [
        "i",
        "d"
      ],
      [
        "T",
        "he"
      ],
      [
        "a",
        "s"
      ],
      [
        "Ġ",
        "re"
      ],
      [
        "Ġha",
        "ve"
      ],
      [
        "I",
        "N"
      ],
      [
        "l",
        "y"
      ],
      [
        "r",
        "a"
      ],
      [
        "Ġl",
        "i"
      ],
      [
        "Ġh",
        "im"
      ],
      [
        "u",
        "r"
      ],
      [
        "Ġth",
        "is"
      ],
      [
        "a",
        "l"
      ],
      [
        "I",
        "O"
      ],
      [
        "Ġs",
        "o"
      ],
      [
        "Ġa",
        "s"
      ],
      [
        "Ġd",
        "e"
      ],
      [
        "Ġ",
        "on"
      ],
      [
        "o",
        "re"
      ],
      [
        "r",
        "o"
      ],
      [
        "A",
        "R"
      ],
      [
        "h",
        "i"
      ],
      [
        "ou",
        "ld"
      ],
      [
        "oo",
        "d"
      ],
      [
        "c",
        "k"
      ],
      [
        "a",
        "in"
      ],
      [
        "v",
        "er"
      ],
      [
        "es",
        "t"
      ],
      [
        "Ġth",
        "y"
      ],
      [
        "Ġs",
        "ha"
      ],
      [
        "es",
        "s"
      ],
      [
        "e",
        "a"
      ],
      [
        "Ġd",
        "o"
      ],
      [
        "Ġw",
        "ill"
      ],
      [
        "a",
        "m"
      ],
      [
        "Ġn",
        "o"
      ],
      [
        "Ġb",
        "ut"
      ],
      [
        "u",
        "s"
      ],
      [
        "a",
        "nd"
      ],
      [
        "U",
        "S"
      ],
      [
        "i",
        "f"
      ],
      [
        "Ġs",
        "e"
      ],
      [
        "g",
        "e"
      ],
      [
        "T",
        "h"
      ],
      [
        "Ġa",
        "ll"
      ],
      [
        "a",
        "ke"
      ],
      [
        "Ġs",
        "u"
      ],
      [
        "T",
        "o"
      ],
      [
        "Ġhe",
        "r"
      ],
      [
        "r",
        "u"
      ],
      [
        "i",
        "on"
      ],
      [
        "t",
        "h"
      ],
      [
        "Ġa",
        "n"
      ],
      [
        "t",
        "er"
      ],
      [
        "ar",
        "d"
      ],
      [
        "Ġl",
        "o"
      ],
      [
        "ha",
        "n"
      ],
      [
        "e",
        "ll"
      ],
      [
        "e",
        "ar"
      ],
      [
        "Ġs",
        "p"
      ],
      [
        "Ġthe",
        "e"
      ],
      [
        "Ġ",
        "our"
      ],
      [
        "Ġf",
        "a"
      ],
      [
        "Ġsha",
        "ll"
      ],
      [
        "Ġb",
        "y"
      ],
      [
        "U",
        "C"
      ],
      [
        "i",
        "l"
      ],
      [
        "Ġa",
        "re"
      ],
      [
        "IN",
        "G"
      ],
      [
        "Ġ",
        "C"
      ],
      [
        "r",
        "om"
      ],
      [
        "Ġn",
        "e"
      ],
      [
        "h",
        "o"
      ],
      [
        "Ġk",
        "n"
      ],
      [
        "A",
        "N"
      ],
      [
        "Ġ",
        "R"
      ],
      [
        "T",
        "hat"
      ],
      [
        "Ġ",
        "v"
      ],
      [
        "E",
        "R"
      ],
      [
        "O",
        "R"
      ],
      [
        "a",
        "st"
      ],
      [
        "c",
        "t"
      ],
      [
        "ou",
        "s"
      ],
      [
        "Ġw",
        "hat"
      ],
      [
        "i",
        "ght"
      ],
      [
        "Ġs",
        "h"
      ],
      [
        "u",
        "l"
      ],
      [
        "E",
        "T"
      ],
      [
        "Ġ",
        "'"
      ],
      [
        "an",
        "t"
      ],
      [
        "E",
        "S"
      ],
      [
        "Ġu",
        "p"
      ],
      [
        "se",
        "l"
      ],
      [
        "q",
        "u"
      ],
      [
        "B",
        "ut"
      ],
      [
        "ar",
        "t"
      ],
      [
        "Ġg",
        "ood"
      ],
      [
        "r",
        "ow"
      ],
      [
        "in",
        "e"
      ],
      [
        "at",
        "h"
      ],
      [
        "Ġl",
        "ord"
      ],
      [
        "hi",
        "ch"
      ],
      [
        "n",
        "t"
      ],
      [
        "u",
        "st"
      ],
      [
        "'",
        "ll"
      ],
      [
        "on",
        "e"
      ],
      [
        "Ġp",
        "r"
      ],
      [
        "Ġc",
        "om"
      ],
      [
        "Ġa",
        "t"
      ],
      [
        "Ġm",
        "an"
      ],
      [
        "W",
        "hat"
      ],
      [
        "Ġ",
        "M"
      ],
      [
        "Ġw",
        "he"
      ],
      [
        "Ġ",
        "E"
      ],
      [
        "K",
        "ING"
      ],
      [
        "Ġa",
        "m"
      ],
      [
        "e",
        "nd"
      ],
      [
        "i",
        "c"
      ],
      [
        "Ġc",
        "on"
      ],
      [
        "b",
        "le"
      ],
      [
        "r",
        "y"
      ],
      [
        "on",
        "g"
      ],
      [
        "i",
        "e"
      ],
      [
        "i",
        "ve"
      ],
      [
        "Ġb",
        "l"
      ],
      [
        "Ġf",
        "rom"
      ],
      [
        "v",
        "en"
      ],
      [
        "Ġ",
        "G"
      ],
      [
        "F",
        "or"
      ],
      [
        "Ġs",
        "he"
      ],
      [
        "e",
        "m"
      ],
      [
        "Ġg",
        "o"
      ],
      [
        "a",
        "re"
      ],
      [
        "Ġm",
        "ore"
      ],
      [
        "I",
        "C"
      ],
      [
        "ou",
        "t"
      ],
      [
        "Ġthe",
        "m"
      ],
      [
        "a",
        "u"
      ],
      [
        "Ġw",
        "as"
      ],
      [
        "ot",
        "h"
      ],
      [
        "ot",
        "her"
      ],
      [
        "H",
        "e"
      ],
      [
        "Ġs",
        "ir"
      ],
      [
        "o",
        "l"
      ],
      [
        "Ġn",
        "ow"
      ],
      [
        "Ġ",
        "L"
      ],
      [
        "Ġ",
        "hat"
      ],
      [
        "o",
        "st"
      ],
      [
        "Ġ",
        "if"
      ],
      [
        "L",
        "O"
      ],
      [
        "in",
        "d"
      ],
      [
        "Ġthe",
        "re"
      ],
      [
        "Ġw",
        "ould"
      ],
      [
        "Ġkn",
        "ow"
      ],
      [
        "Ġc",
        "an"
      ],
      [
        "er",
        "s"
      ],
      [
        "I",
        "US"
      ],
      [
        "e",
        "p"
      ],
      [
        "sel",
        "f"
      ],
      [
        "AR",
        "D"
      ],
      [
        "at",
        "her"
      ],
      [
        "f",
        "e"
      ],
      [
        "o",
        "nd"
      ],
      [
        "re",
        "s"
      ],
      [
        "at",
        "e"
      ],
      [
        "Ġs",
        "ay"
      ],
      [
        "Ġhe",
        "re"
      ],
      [
        "Ġlo",
        "ve"
      ],
      [
        "Ġs",
        "w"
      ],
      [
        "Ġthe",
        "ir"
      ],
      [
        "Ġb",
        "r"
      ],
      [
        "p",
        "p"
      ],
      [
        "Ġ",
        "or"
      ],
      [
        "-",
        "-"
      ],
      [
        "a",
        "ll"
      ],
      [
        "Ġ",
        "S"
      ],
      [
        "Ġt",
        "han"
      ],
      [
        "Ġthe",
        "n"
      ],
      [
        "Ġk",
        "ing"
      ],
      [
        "Ġu",
        "s"
      ],
      [
        "Ġ",
        "O"
      ],
      [
        "Ġ",
        "B"
      ],
      [
        "Ġthe",
        "y"
      ],
      [
        "Ġa",
        "r"
      ],
      [
        "o",
        "d"
      ],
      [
        "M",
        "y"
      ],
      [
        "Ġl",
        "et"
      ],
      [
        "Ġu",
        "n"
      ],
      [
        "i",
        "g"
      ],
      [
        "Ġw",
        "or"
      ],
      [
        "u",
        "re"
      ],
      [
        "in",
        "k"
      ],
      [
        "Ġ",
        "H"
      ],
      [
        "or",
        "t"
      ],
      [
        "h",
        "y"
      ],
      [
        "Ġ",
        "V"
      ],
      [
        "am",
        "e"
      ],
      [
        "f",
        "ore"
      ],
      [
        "A",
        "s"
      ],
      [
        "Ġm",
        "ay"
      ],
      [
        "e",
        "l"
      ],
      [
        "Ġ",
        "qu"
      ],
      [
        "Ġc",
        "ome"
      ],
      [
        "oo",
        "k"
      ],
      [
        "W",
        "he"
      ],
      [
        "is",
        "h"
      ],
      [
        "L",
        "I"
      ],
      [
        "Ġwe",
        "ll"
      ],
      [
        "K",
        "E"
      ],
      [
        "v",
        "es"
      ],
      [
        "Ġ",
        "j"
      ],
      [
        "Ġon",
        "e"
      ],
      [
        "Ġhat",
        "h"
      ],
      [
        "ir",
        "st"
      ],
      [
        "Y",
        "ou"
      ],
      [
        "Ġm",
        "ake"
      ],
      [
        "re",
        "at"
      ],
      [
        "a",
        "k"
      ],
      [
        "g",
        "ain"
      ],
      [
        "Ġm",
        "ust"
      ],
      [
        "ou",
        "nd"
      ],
      [
        "n",
        "g"
      ],
      [
        "Ġg",
        "ra"
      ],
      [
        "Ġwe",
        "re"
      ],
      [
        "Ġh",
        "o"
      ],
      [
        "c",
        "i"
      ],
      [
        "Ġse",
        "e"
      ],
      [
        "Ġli",
        "ke"
      ],
      [
        "u",
        "e"
      ],
      [
        "ea",
        "k"
      ],
      [
        "T",
        "IO"
      ],
      [
        "Ġsh",
        "ould"
      ],
      [
        "it",
        "y"
      ],
      [
        "Ġp",
        "ro"
      ],
      [
        "Ġ",
        "P"
      ],
      [
        "Ġs",
        "a"
      ],
      [
        "Ġm",
        "ad"
      ],
      [
        "u",
        "m"
      ],
      [
        "Ġp",
        "l"
      ],
      [
        "Ġf",
        "ather"
      ],
      [
        "R",
        "O"
      ],
      [
        "A",
        "U"
      ],
      [
        "Ġha",
        "d"
      ],
      [
        "Ġd",
        "id"
      ],
      [
        "p",
        "e"
      ],
      [
        "im",
        "e"
      ],
      [
        "Ġup",
        "on"
      ],
      [
        "i",
        "ce"
      ],
      [
        "O",
        "N"
      ],
      [
        "Ġto",
        "o"
      ],
      [
        "en",
        "ce"
      ],
      [
        "Ġ",
        "W"
      ],
      [
        "w",
        "ard"
      ],
      [
        "is",
        "t"
      ],
      [
        "Ġde",
        "ath"
      ],
      [
        "ow",
        "n"
      ],
      [
        "m",
        "an"
      ],
      [
        "o",
        "se"
      ],
      [
        "Ġ",
        "en"
      ],
      [
        "u",
        "n"
      ],
      [
        "I",
        "S"
      ],
      [
        "f",
        "ul"
      ],
      [
        "n",
        "ce"
      ],
      [
        "Ġ",
        "r"
      ],
      [
        "Ġp",
        "o"
      ],
      [
        "Ġsp",
        "eak"
      ],
      [
        "d",
        "e"
      ],
      [
        "ent",
        "le"
      ],
      [
        "i",
        "o"
      ],
      [
        "Ġ",
        "out"
      ],
      [
        "p",
        "t"
      ],
      [
        "Ġw",
        "hich"
      ],
      [
        "IC",
        "H"
      ],
      [
        "Ġf",
        "ri"
      ],
      [
        "O",
        "L"
      ],
      [
        "D",
        "U"
      ],
      [
        "Ġa",
        "gain"
      ],
      [
        "DU",
        "KE"
      ],
      [
        "Ġh",
        "ow"
      ],
      [
        "E",
        "L"
      ],
      [
        "i",
        "ck"
      ],
      [
        "Ġ",
        "A"
      ],
      [
        "Ġt",
        "ru"
      ],
      [
        "Ġhe",
        "art"
      ],
      [
        "Ġy",
        "et"
      ],
      [
        "Ġha",
        "nd"
      ],
      [
        "C",
        "A"
      ],
      [
        "Th",
        "ou"
      ],
      [
        "ver",
        "y"
      ],
      [
        "ICH",
        "ARD"
      ],
      [
        "EN",
        "TIO"
      ],
      [
        "W",
        "ith"
      ],
      [
        "ig",
        "n"
      ],
      [
        "Ġs",
        "ome"
      ],
      [
        "an",
        "ce"
      ],
      [
        "Ġw",
        "ho"
      ],
      [
        "W",
        "hich"
      ],
      [
        "I",
        "f"
      ],
      [
        "Ġwhe",
        "n"
      ],
      [
        "i",
        "es"
      ],
      [
        "Ġm",
        "ar"
      ],
      [
        "i",
        "re"
      ],
      [
        "Ġm",
        "ine"
      ],
      [
        "Ġh",
        "on"
      ],
      [
        "ha",
        "r"
      ],
      [
        "or",
        "n"
      ],
      [
        "Ġof",
        "f"
      ],
      [
        "in",
        "ce"
      ],
      [
        "IN",
        "C"
      ],
      [
        "I",
        "n"
      ],
      [
        "a",
        "ck"
      ],
      [
        "Ġ",
        "Y"
      ],
      [
        "Ġs",
        "on"
      ],
      [
        "Ġd",
        "is"
      ],
      [
        "Ġa",
        "l"
      ],
      [
        "'",
        "t"
      ],
      [
        "W",
        "e"
      ],
      [
        "u",
        "ch"
      ],
      [
        "w",
        "n"
      ],
      [
        "Ġhe",
        "a"
      ],
      [
        "F",
        "irst"
      ],
      [
        "o",
        "y"
      ],
      [
        "Ġt",
        "ime"
      ],
      [
        "Ġhe",
        "ar"
      ],
      [
        "A",
        "B"
      ],
      [
        "e",
        "c"
      ],
      [
        "Ġsu",
        "ch"
      ],
      [
        "n",
        "ess"
      ],
      [
        "L",
        "A"
      ],
      [
        "Ġbr",
        "other"
      ],
      [
        "O",
        "f"
      ],
      [
        "Ġbl",
        "ood"
      ],
      [
        "it",
        "her"
      ],
      [
        "Ġa",
        "b"
      ],
      [
        "U",
        "E"
      ],
      [
        "W",
        "hy"
      ],
      [
        "Ġthe",
        "se"
      ],
      [
        "N",
        "o"
      ],
      [
        "Ġg",
        "ive"
      ],
      [
        "Ġf",
        "o"
      ],
      [
        "Ġd",
        "ay"
      ],
      [
        "ĠI",
        "I"
      ],
      [
        "Ġe",
        "ar"
      ],
      [
        "ĠR",
        "ICHARD"
      ],
      [
        "T",
        "ER"
      ],
      [
        "Ġ",
        "ro"
      ],
      [
        "is",
        "e"
      ],
      [
        "Ġe",
        "x"
      ],
      [
        "Ġli",
        "fe"
      ],
      [
        "Th",
        "is"
      ],
      [
        "e",
        "et"
      ],
      [
        "Ġt",
        "ell"
      ],
      [
        "S",
        "o"
      ],
      [
        "Ġl",
        "ook"
      ],
      [
        "Ġth",
        "ink"
      ],
      [
        "UC",
        "H"
      ],
      [
        "ou",
        "l"
      ],
      [
        "Ġw",
        "ord"
      ],
      [
        "Ġe",
        "y"
      ],
      [
        "Ġwhe",
        "re"
      ],
      [
        "a",
        "g"
      ],
      [
        "a",
        "ge"
      ],
      [
        "e",
        "en"
      ],
      [
        "t",
        "her"
      ],
      [
        "G",
        "LO"
      ],
      [
        "Ġt",
        "ake"
      ],
      [
        "UC",
        "ES"
      ],
      [
        "Ġfri",
        "end"
      ],
      [
        "GLO",
        "UCES"
      ],
      [
        "GLOUCES",
        "TER"
      ],
      [
        "e",
        "f"
      ],
      [
        "er",
        "v"
      ],
      [
        "ad",
        "y"
      ],
      [
        "row",
        "n"
      ],
      [
        "Ġd",
        "es"
      ],
      [
        "ing",
        "s"
      ],
      [
        "a",
        "ve"
      ],
      [
        "n",
        "ot"
      ],
      [
        "Ġg",
        "entle"
      ],
      [
        "ur",
        "se"
      ],
      [
        "H",
        "ow"
      ],
      [
        "R",
        "Y"
      ],
      [
        "Ġ",
        "ri"
      ],
      [
        "a",
        "se"
      ],
      [
        "Q",
        "UE"
      ],
      [
        "w",
        "ay"
      ],
      [
        "INC",
        "ENTIO"
      ],
      [
        "QUE",
        "EN"
      ],
      [
        "Ġl",
        "ea"
      ],
      [
        "t",
        "is"
      ],
      [
        "ĠO",
        "F"
      ],
      [
        "Ġar",
        "t"
      ],
      [
        "Ġm",
        "ost"
      ],
      [
        "Whe",
        "re"
      ],
      [
        "Ġhon",
        "our"
      ],
      [
        "L",
        "AN"
      ],
      [
        "Ġm",
        "uch"
      ],
      [
        "Ġs",
        "l"
      ],
      [
        "Ġw",
        "ar"
      ],
      [
        "Ġf",
        "l"
      ],
      [
        "ur",
        "n"
      ],
      [
        "Ġmad",
        "e"
      ],
      [
        "m",
        "ent"
      ],
      [
        "N",
        "ow"
      ],
      [
        "Ġha",
        "st"
      ],
      [
        "Ġt",
        "w"
      ],
      [
        "Ġf",
        "ear"
      ],
      [
        "Ġ",
        "T"
      ],
      [
        "Ġbe",
        "t"
      ],
      [
        "EN",
        "RY"
      ],
      [
        "au",
        "ght"
      ],
      [
        "I",
        "s"
      ],
      [
        "L",
        "E"
      ],
      [
        "b",
        "er"
      ],
      [
        "f",
        "f"
      ],
      [
        "ĠG",
        "od"
      ],
      [
        "ou",
        "gh"
      ],
      [
        "ve",
        "d"
      ],
      [
        "Ġb",
        "re"
      ],
      [
        "c",
        "c"
      ],
      [
        "ow",
        "er"
      ],
      [
        "Ġne",
        "ver"
      ],
      [
        "ĠV",
        "INCENTIO"
      ],
      [
        "B",
        "e"
      ],
      [
        "a",
        "p"
      ],
      [
        "i",
        "gh"
      ],
      [
        "Ġ",
        "K"
      ],
      [
        "Ġg",
        "reat"
      ],
      [
        "Ġfa",
        "ir"
      ],
      [
        "W",
        "ho"
      ],
      [
        "e",
        "e"
      ],
      [
        "t",
        "le"
      ],
      [
        "Ġm",
        "en"
      ],
      [
        "or",
        "row"
      ],
      [
        "Ġc",
        "ou"
      ],
      [
        "Ġne",
        "w"
      ],
      [
        "ĠR",
        "ome"
      ],
      [
        "ast",
        "er"
      ],
      [
        "u",
        "ke"
      ],
      [
        "i",
        "z"
      ],
      [
        "o",
        "ld"
      ],
      [
        "OR",
        "K"
      ],
      [
        "Ġp",
        "art"
      ],
      [
        "at",
        "ion"
      ],
      [
        "IN",
        "IUS"
      ],
      [
        "s",
        "s"
      ],
      [
        "re",
        "e"
      ],
      [
        "id",
        "e"
      ],
      [
        "O",
        "r"
      ],
      [
        "Ġc",
        "all"
      ],
      [
        "p",
        "le"
      ],
      [
        "Ġan",
        "y"
      ],
      [
        "Ġhea",
        "ven"
      ],
      [
        "Ġa",
        "d"
      ],
      [
        "Ġcom",
        "m"
      ],
      [
        "I",
        "t"
      ],
      [
        "Y",
        "our"
      ],
      [
        "Ġst",
        "and"
      ],
      [
        "Ġcan",
        "not"
      ],
      [
        "Ġtru",
        "e"
      ],
      [
        "D",
        "W"
      ],
      [
        "Ġn",
        "ame"
      ],
      [
        "Ġbe",
        "en"
      ],
      [
        "ear",
        "s"
      ],
      [
        "DW",
        "ARD"
      ],
      [
        "Ġc",
        "l"
      ],
      [
        "Ġp",
        "re"
      ],
      [
        "Ġsw",
        "eet"
      ],
      [
        ",",
        "--"
      ],
      [
        "Ġd",
        "oth"
      ],
      [
        "Ġpr",
        "ay"
      ],
      [
        "h",
        "ing"
      ],
      [
        "P",
        "ET"
      ],
      [
        "U",
        "M"
      ],
      [
        "Ġno",
        "ble"
      ],
      [
        "L",
        "UC"
      ],
      [
        "M",
        "EN"
      ],
      [
        "T",
        "H"
      ],
      [
        "Ġo",
        "wn"
      ],
      [
        "Ġp",
        "le"
      ],
      [
        "as",
        "s"
      ],
      [
        "Ġ",
        "D"
      ],
      [
        "ou",
        "se"
      ],
      [
        "Ġp",
        "er"
      ],
      [
        "A",
        "y"
      ],
      [
        "C",
        "ome"
      ],
      [
        "u",
        "ll"
      ],
      [
        "The",
        "re"
      ],
      [
        "Ġw",
        "r"
      ],
      [
        "Ġd",
        "one"
      ],
      [
        "if",
        "e"
      ],
      [
        "a",
        "w"
      ],
      [
        "Ġt",
        "r"
      ],
      [
        "Ġw",
        "ay"
      ],
      [
        "Ġo",
        "ther"
      ],
      [
        "Ġhe",
        "ad"
      ],
      [
        "Ġme",
        "an"
      ],
      [
        "l",
        "i"
      ],
      [
        "re",
        "d"
      ],
      [
        "Whe",
        "n"
      ],
      [
        "d",
        "ward"
      ],
      [
        "Ġn",
        "or"
      ],
      [
        "E",
        "O"
      ],
      [
        "M",
        "EO"
      ],
      [
        "Ġs",
        "c"
      ],
      [
        "Ġs",
        "oul"
      ],
      [
        "Ġp",
        "res"
      ],
      [
        "RO",
        "MEO"
      ],
      [
        "a",
        "ce"
      ],
      [
        "v",
        "ing"
      ],
      [
        "Ġn",
        "ight"
      ],
      [
        "Ġbe",
        "ar"
      ],
      [
        "EN",
        "IUS"
      ],
      [
        "ain",
        "t"
      ],
      [
        "ĠC",
        "l"
      ],
      [
        "Ġwor",
        "ld"
      ],
      [
        "MEN",
        "ENIUS"
      ],
      [
        "g",
        "er"
      ],
      [
        "Ġbe",
        "fore"
      ],
      [
        "au",
        "se"
      ],
      [
        "Ġb",
        "oth"
      ],
      [
        "Ġqu",
        "een"
      ],
      [
        "p",
        "er"
      ],
      [
        "The",
        "n"
      ],
      [
        "aught",
        "er"
      ],
      [
        "R",
        "UCH"
      ],
      [
        "o",
        "ck"
      ],
      [
        "Ġc",
        "hi"
      ],
      [
        "He",
        "re"
      ],
      [
        "PET",
        "RUCH"
      ],
      [
        "PETRUCH",
        "IO"
      ],
      [
        "O",
        "M"
      ],
      [
        "a",
        "ble"
      ],
      [
        "Ġ",
        "very"
      ],
      [
        "Ġde",
        "ad"
      ],
      [
        "T",
        "ES"
      ],
      [
        "B",
        "y"
      ],
      [
        "Ġ",
        "ra"
      ],
      [
        "it",
        "e"
      ],
      [
        "T",
        "han"
      ],
      [
        "t",
        "he"
      ],
      [
        "Ġ",
        "ke"
      ],
      [
        "a",
        "b"
      ],
      [
        "l",
        "es"
      ],
      [
        "Ġ",
        "F"
      ],
      [
        "Ġd",
        "own"
      ],
      [
        "t",
        "o"
      ],
      [
        "Ġa",
        "pp"
      ],
      [
        "Ġmy",
        "self"
      ],
      [
        "Ġcon",
        "t"
      ],
      [
        "G",
        "R"
      ],
      [
        "H",
        "A"
      ],
      [
        "Ġw",
        "h"
      ],
      [
        "Ġre",
        "m"
      ],
      [
        "ĠL",
        "ord"
      ],
      [
        "Ġar",
        "m"
      ],
      [
        "Ġth",
        "us"
      ],
      [
        "IO",
        "LAN"
      ],
      [
        "il",
        "t"
      ],
      [
        "OR",
        "IOLAN"
      ],
      [
        "ORIOLAN",
        "US"
      ],
      [
        "C",
        "ORIOLANUS"
      ],
      [
        "S",
        "ec"
      ],
      [
        "Ġlea",
        "ve"
      ],
      [
        "Sec",
        "ond"
      ],
      [
        "Ġbe",
        "ing"
      ],
      [
        "ct",
        "ion"
      ],
      [
        "ĠE",
        "dward"
      ],
      [
        "N",
        "or"
      ],
      [
        "s",
        "w"
      ],
      [
        "Ġu",
        "nt"
      ],
      [
        "res",
        "s"
      ],
      [
        "Ġgra",
        "ce"
      ],
      [
        "l",
        "ess"
      ],
      [
        "Ġbe",
        "g"
      ],
      [
        "Ġey",
        "es"
      ],
      [
        "B",
        "A"
      ],
      [
        "l",
        "and"
      ],
      [
        "Ġm",
        "other"
      ],
      [
        "r",
        "an"
      ],
      [
        "Ġm",
        "a"
      ],
      [
        "Ġo",
        "ld"
      ],
      [
        "Ġ",
        "im"
      ],
      [
        "IN",
        "A"
      ],
      [
        "ĠE",
        "DWARD"
      ],
      [
        "it",
        "iz"
      ],
      [
        "itiz",
        "en"
      ],
      [
        "p",
        "s"
      ],
      [
        "Ġl",
        "ong"
      ],
      [
        "Ġe",
        "ver"
      ],
      [
        "ĠM",
        "ar"
      ],
      [
        "Ġli",
        "ve"
      ],
      [
        "Ġchi",
        "ld"
      ],
      [
        "L",
        "et"
      ],
      [
        "m",
        "e"
      ],
      [
        "Ġw",
        "ife"
      ],
      [
        "S",
        "he"
      ],
      [
        "Ġa",
        "way"
      ],
      [
        "Ġre",
        "p"
      ],
      [
        "ĠII",
        "I"
      ],
      [
        "Ġw",
        "om"
      ],
      [
        "Ġpo",
        "or"
      ],
      [
        "Ġfriend",
        "s"
      ],
      [
        "c",
        "ome"
      ],
      [
        "f",
        "or"
      ],
      [
        "w",
        "ick"
      ],
      [
        "Ġa",
        "f"
      ],
      [
        "Ġm",
        "ight"
      ],
      [
        "nd",
        "er"
      ],
      [
        "Ġst",
        "ay"
      ],
      [
        "ea",
        "ce"
      ],
      [
        "k",
        "s"
      ],
      [
        "ou",
        "d"
      ],
      [
        "Ġd",
        "ie"
      ],
      [
        "at",
        "ch"
      ],
      [
        "le",
        "d"
      ],
      [
        "Ġ",
        "J"
      ],
      [
        "Ġ",
        "ru"
      ],
      [
        "ar",
        "wick"
      ],
      [
        "Ġcom",
        "es"
      ],
      [
        "Ġcon",
        "s"
      ],
      [
        "Ġc",
        "rown"
      ],
      [
        "ow",
        "s"
      ],
      [
        "Ġman",
        "y"
      ],
      [
        "Ġp",
        "e"
      ],
      [
        "T",
        "is"
      ],
      [
        "ha",
        "ll"
      ],
      [
        "is",
        "on"
      ],
      [
        "Ġl",
        "e"
      ],
      [
        "ĠY",
        "ORK"
      ],
      [
        "l",
        "o"
      ],
      [
        "u",
        "ck"
      ],
      [
        "is",
        "s"
      ],
      [
        "Ġh",
        "ouse"
      ],
      [
        "Ġha",
        "r"
      ],
      [
        "Ġthou",
        "ght"
      ],
      [
        "Ġre",
        "st"
      ],
      [
        "IS",
        "AB"
      ],
      [
        "EL",
        "LA"
      ],
      [
        "ISAB",
        "ELLA"
      ],
      [
        "i",
        "an"
      ],
      [
        "er",
        "c"
      ],
      [
        "Ġc",
        "our"
      ],
      [
        "R",
        "AN"
      ],
      [
        "Ġ",
        "ent"
      ],
      [
        "Ġli",
        "e"
      ],
      [
        "c",
        "he"
      ],
      [
        "Ġs",
        "et"
      ],
      [
        "J",
        "U"
      ],
      [
        "w",
        "ell"
      ],
      [
        "or",
        "s"
      ],
      [
        "at",
        "ter"
      ],
      [
        "LI",
        "ET"
      ],
      [
        "ON",
        "TES"
      ],
      [
        "ĠW",
        "arwick"
      ],
      [
        "LE",
        "ONTES"
      ],
      [
        "JU",
        "LIET"
      ],
      [
        "N",
        "ay"
      ],
      [
        "in",
        "t"
      ],
      [
        "it",
        "tle"
      ],
      [
        "Ġd",
        "aughter"
      ],
      [
        "Ġg",
        "one"
      ],
      [
        "Ġbet",
        "ter"
      ],
      [
        "M",
        "I"
      ],
      [
        "r",
        "ant"
      ],
      [
        "ou",
        "ght"
      ],
      [
        "Ġpr",
        "ince"
      ],
      [
        "D",
        "Y"
      ],
      [
        "H",
        "is"
      ],
      [
        "Ġt",
        "ong"
      ],
      [
        "Ġw",
        "it"
      ],
      [
        "Ġnot",
        "hing"
      ],
      [
        "C",
        "E"
      ],
      [
        "V",
        "OL"
      ],
      [
        "EN",
        "CE"
      ],
      [
        "LA",
        "DY"
      ],
      [
        "B",
        "R"
      ],
      [
        "T",
        "A"
      ],
      [
        "c",
        "l"
      ],
      [
        "i",
        "ed"
      ],
      [
        "Ġke",
        "ep"
      ],
      [
        "G",
        "o"
      ],
      [
        "W",
        "ell"
      ],
      [
        "c",
        "es"
      ],
      [
        "i",
        "ous"
      ],
      [
        "o",
        "s"
      ],
      [
        "Ġs",
        "le"
      ],
      [
        "Ġre",
        "s"
      ],
      [
        "har",
        "d"
      ],
      [
        "Ġnew",
        "s"
      ],
      [
        "S",
        "IC"
      ],
      [
        "f",
        "t"
      ],
      [
        "i",
        "er"
      ],
      [
        "Ġt",
        "ri"
      ],
      [
        "Ġm",
        "o"
      ],
      [
        "re",
        "t"
      ],
      [
        "on",
        "t"
      ],
      [
        "Ġth",
        "ose"
      ],
      [
        "Ġg",
        "ri"
      ],
      [
        "oo",
        "l"
      ],
      [
        "un",
        "e"
      ],
      [
        "SIC",
        "INIUS"
      ],
      [
        "N",
        "ot"
      ],
      [
        "Ġl",
        "ittle"
      ],
      [
        "Ġlord",
        "s"
      ],
      [
        "Ġagain",
        "st"
      ],
      [
        "f",
        "ord"
      ],
      [
        "Ġb",
        "est"
      ],
      [
        "Ġh",
        "our"
      ],
      [
        "Ġhe",
        "nce"
      ],
      [
        "ard",
        "on"
      ],
      [
        "ak",
        "es"
      ],
      [
        "l",
        "se"
      ],
      [
        "Ġa",
        "cc"
      ],
      [
        "se",
        "d"
      ],
      [
        "Ġfa",
        "ce"
      ],
      [
        "ul",
        "t"
      ],
      [
        "Ġfo",
        "ll"
      ],
      [
        "O",
        "n"
      ],
      [
        "e",
        "w"
      ],
      [
        "u",
        "d"
      ],
      [
        "ar",
        "k"
      ],
      [
        "Ġyou",
        "ng"
      ],
      [
        "Ġe",
        "nd"
      ],
      [
        "or",
        "k"
      ],
      [
        "Ġth",
        "ing"
      ],
      [
        "Ġst",
        "ill"
      ],
      [
        "Ġk",
        "ind"
      ],
      [
        "ie",
        "ld"
      ],
      [
        "S",
        "T"
      ],
      [
        "Ġp",
        "ri"
      ],
      [
        "Ġp",
        "ur"
      ],
      [
        "al",
        "k"
      ],
      [
        "Th",
        "y"
      ],
      [
        "Ġcom",
        "p"
      ],
      [
        "LUC",
        "IO"
      ],
      [
        "a",
        "le"
      ],
      [
        "in",
        "s"
      ],
      [
        "er",
        "t"
      ],
      [
        "Ġp",
        "ut"
      ],
      [
        "Ġp",
        "ower"
      ],
      [
        "ĠI",
        "V"
      ],
      [
        "ic",
        "hard"
      ],
      [
        "Ġtw",
        "o"
      ],
      [
        "Ġc",
        "ha"
      ],
      [
        "Ġhim",
        "self"
      ],
      [
        "P",
        "ro"
      ],
      [
        "in",
        "ess"
      ],
      [
        "Ġf",
        "irst"
      ],
      [
        "Ġp",
        "eace"
      ],
      [
        "Ġg",
        "u"
      ],
      [
        "Ġe",
        "lse"
      ],
      [
        "ri",
        "ed"
      ],
      [
        "Ġde",
        "ar"
      ],
      [
        "ci",
        "ous"
      ],
      [
        "S",
        "ir"
      ],
      [
        "a",
        "il"
      ],
      [
        "t",
        "y"
      ],
      [
        "as",
        "on"
      ],
      [
        "hi",
        "le"
      ],
      [
        "Ġsu",
        "b"
      ],
      [
        "Ġunt",
        "o"
      ],
      [
        "i",
        "le"
      ],
      [
        "r",
        "ay"
      ],
      [
        "Ġt",
        "ill"
      ],
      [
        "Ġs",
        "m"
      ],
      [
        "ut",
        "y"
      ],
      [
        "R",
        "I"
      ],
      [
        "Z",
        "AB"
      ],
      [
        "e",
        "ct"
      ],
      [
        "Ġt",
        "ra"
      ],
      [
        "Ġb",
        "id"
      ],
      [
        "Ġb",
        "ack"
      ],
      [
        "Ġd",
        "re"
      ],
      [
        "Ġh",
        "us"
      ],
      [
        "ET",
        "H"
      ],
      [
        "ĠE",
        "LI"
      ],
      [
        "Ġthere",
        "fore"
      ],
      [
        "Ġear",
        "th"
      ],
      [
        "Ġword",
        "s"
      ],
      [
        "Ġcou",
        "nt"
      ],
      [
        "ZAB",
        "ETH"
      ],
      [
        "ĠELI",
        "ZABETH"
      ],
      [
        "H",
        "ave"
      ],
      [
        "b",
        "and"
      ],
      [
        "i",
        "us"
      ],
      [
        "m",
        "en"
      ],
      [
        "o",
        "ple"
      ],
      [
        "y",
        "al"
      ],
      [
        "Ġf",
        "ind"
      ],
      [
        "Ġc",
        "ould"
      ],
      [
        "Ġtong",
        "ue"
      ],
      [
        "or",
        "se"
      ],
      [
        "Ġl",
        "ady"
      ],
      [
        "Ġth",
        "ine"
      ],
      [
        "Ġne",
        "ed"
      ],
      [
        "ĠY",
        "ork"
      ],
      [
        "H",
        "ENRY"
      ],
      [
        "g",
        "et"
      ],
      [
        "t",
        "w"
      ],
      [
        "Ġt",
        "re"
      ],
      [
        "Ġf",
        "ell"
      ],
      [
        "en",
        "ry"
      ],
      [
        "Ġh",
        "igh"
      ],
      [
        "Ġfor",
        "th"
      ],
      [
        "Ġho",
        "pe"
      ],
      [
        "M",
        "ER"
      ],
      [
        "S",
        "t"
      ],
      [
        "l",
        "p"
      ],
      [
        "Ġh",
        "ome"
      ],
      [
        "ve",
        "re"
      ],
      [
        "et",
        "h"
      ],
      [
        "Ġse",
        "em"
      ],
      [
        "ee",
        "ch"
      ],
      [
        "ĠRome",
        "o"
      ],
      [
        "Ġhus",
        "band"
      ],
      [
        "C",
        "L"
      ],
      [
        "Ġd",
        "uke"
      ],
      [
        "Ġri",
        "ght"
      ],
      [
        "G",
        "E"
      ],
      [
        "W",
        "AR"
      ],
      [
        "W",
        "IC"
      ],
      [
        "f",
        "ort"
      ],
      [
        "Ġ",
        "What"
      ],
      [
        "re",
        "r"
      ],
      [
        "Ġb",
        "an"
      ],
      [
        "ut",
        "h"
      ],
      [
        "Ġthou",
        "gh"
      ],
      [
        "ĠV",
        "I"
      ],
      [
        "WAR",
        "WIC"
      ],
      [
        "WARWIC",
        "K"
      ],
      [
        "U",
        "T"
      ],
      [
        "a",
        "ch"
      ],
      [
        "i",
        "x"
      ],
      [
        "Ġm",
        "ind"
      ],
      [
        "Ġb",
        "ra"
      ],
      [
        "is",
        "ter"
      ],
      [
        "Ġc",
        "he"
      ],
      [
        "Ġc",
        "har"
      ],
      [
        "hi",
        "p"
      ],
      [
        "ĠH",
        "ENRY"
      ],
      [
        "Ġpe",
        "ople"
      ],
      [
        "N",
        "urse"
      ],
      [
        "d",
        "s"
      ],
      [
        "g",
        "ed"
      ],
      [
        "ĠC",
        "itizen"
      ],
      [
        "re",
        "n"
      ],
      [
        "The",
        "y"
      ],
      [
        "ĠH",
        "enry"
      ],
      [
        "HA",
        "M"
      ],
      [
        "I",
        "AN"
      ],
      [
        "L",
        "ET"
      ],
      [
        "P",
        "U"
      ],
      [
        "e",
        "ed"
      ],
      [
        "Ġb",
        "ri"
      ],
      [
        "Ġc",
        "han"
      ],
      [
        "Ġl",
        "aw"
      ],
      [
        "ĠR",
        "ichard"
      ],
      [
        "Ġsh",
        "ow"
      ],
      [
        "Ġcon",
        "f"
      ]
    ]
  }
}