{
  "version": "1.0",
  "truncation": null,
  "padding": null,
  "added_tokens": [
    {
      "id": 0,
      "content": "<unk>",
      "single_word": false,
      "lstrip": false,
      "rstrip": false,
      "normalized": false,
      "special": true
    },
    {
      "id": 1,
      "content": "<pad>",
      "single_word": false,
      "lstrip": false,
      "rstrip": false,
      "normalized": false,
      "special": true
    },
    {
      "id": 2,
      "content": "<bos>",
      "single_word": false,
      "lstrip": false,
      "rstrip": false,
      "normalized": false,
      "special": true
    },
    {
      "id": 3,
      "content": "<eos>",
      "single_word": false,
      "lstrip": false,
      "rstrip": false,
      "normalized": false,
      "special": true
    }
  ],
  "normalizer": {
    "type": "NFKC"
  },
  "pre_tokenizer": {
    "type": "ByteLevel",
    "add_prefix_space": false,
    "trim_offsets": true,
    "use_regex": true
  },
  "post_processor": {
    "type": "ByteLevel",
    "add_prefix_space": true,
    "trim_offsets": true,
    "use_regex": true
  },
  "decoder": {
    "type": "ByteLevel",
    "add_prefix_space": true,
    "trim_offsets": true,
    "use_regex": true
  },
  "model": {
    "type": "BPE",
    "dropout": null,
    "unk_token": null,
    "continuing_subword_prefix": null,
    "end_of_word_suffix": null,
    "fuse_unk": false,
    "byte_fallback": false,
    "ignore_merges": false,
    "vocab": {
      "<unk>": 0,
      "<pad>": 1,
      "<bos>": 2,
      "<eos>": 3,
      "!": 4,
      "$": 5,
      "&": 6,
      "'": 7,
      ",": 8,
      "-": 9,
      ".": 10,
      "3": 11,
      ":": 12,
      ";": 13,
      "?": 14,
      "A": 15,
      "B": 16,
      "C": 17,
      "D": 18,
      "E": 19,
      "F": 20,
      "G": 21,
      "H": 22,
      "I": 23,
      "J": 24,
      "K": 25,
      "L": 26,
      "M": 27,
      "N": 28,
      "O": 29,
      "P": 30,
      "Q": 31,
      "R": 32,
      "S": 33,
      "T": 34,
      "U": 35,
      "V": 36,
      "W": 37,
      "X": 38,
      "Y": 39,
      "Z": 40,
      "a": 41,
      "b": 42,
      "c": 43,
      "d": 44,
      "e": 45,
      "f": 46,
      "g": 47,
      "h": 48,
      "i": 49,
      "j": 50,
      "k": 51,
      "l": 52,
      "m": 53,
      "n": 54,
      "o": 55,
      "p": 56,
      "q": 57,
      "r": 58,
      "s": 59,
      "t": 60,
      "u": 61,
      "v": 62,
      "w": 63,
      "x": 64,
      "y": 65,
      "z": 66,
      "Ċ": 67,
      "Ġ": 68,
      "Ġt": 69,
      "he": 70,
      "Ġa": 71,
      "ou": 72,
      "Ġs": 73,
      "Ġm": 74,
      "in": 75,
      "Ġw": 76,
      "re": 77,
      "ha": 78,
      "nd": 79,
      "Ġthe": 80,
      "Ġb": 81,
      "is": 82,
      "or": 83,
      "Ġf": 84,
      "er": 85,
      "ll": 86,
      "it": 87,
      "on": 88,
      "Ġd": 89,
      "Ġc": 90,
      "es": 91,
      "en": 92,
      "Ġn": 93,
      "Ġl": 94,
      "Ġy": 95,
      "Ġth": 96,
      "ar": 97,
      "Ġh": 98,
      "Ġo": 99,
      "Ġto": 100,
      "Ġyou": 101,
      "Ġp": 102,
      "hat": 103,
      "ĠI": 104,
      "Ġhe": 105,
      "ve": 106,
      "ot": 107,
      "st": 108,
      "Ġand": 109,
      "ow": 110,
      "ing": 111,
      "an": 112,
      "Ġof": 113,
      "om": 114,
      "Ġg": 115,
      "at": 116,
      "Ġbe": 117,
      "se": 118,
      "Ġmy": 119,
      "Ġin": 120,
      "ce": 121,
      "Ġha": 122,
      "le": 123,
      "ay": 124,
      "ld": 125,
      "ir": 126,
      "et": 127,
      "ed": 128,
      "ut": 129,
      "Ġme": 130,
      "im": 131,
      "ith": 132,
      "'s": 133,
      "Ġnot": 134,
      "ch": 135,
      "Ġthat": 136,
      "Ġis": 137,
      "gh": 138,
      "And": 139,
      "Ġfor": 140,
      "ke": 141,
      "Ġu": 142,
      "our": 143,
      "Ġwe": 144,
      "oo": 145,
      "ill": 146,
      "Ġe": 147,
      "her": 148,
      "Ġwith": 149,
      "ent": 150,
      "Ġit": 151,
      "Ġyour": 152,
      "ad": 153,
      "ri": 154,
      "Ġthou": 155,
      "Ġst": 156,
      "'d": 157,
      "Ġk": 158,
      "ome": 159,
      "Ġhis": 160,
      "ght": 161,
      "EN": 162,
      "ord": 163,
      "id": 164,
      "The": 165,
      "as": 166,
      "Ġre": 167,
      "Ġhave": 168,
      "IN": 169,
      "ly": 170,
      "ra": 171,
      "Ġli": 172,
      "Ġhim": 173,
      "ur": 174,
      "Ġthis": 175,
      "al": 176,
      "IO": 177,
      "Ġso": 178,
      "Ġas": 179,
      "Ġde": 180,
      "Ġon": 181,
      "ore": 182,
      "ro": 183,
      "AR": 184,
      "hi": 185,
      "ould": 186,
      "ood": 187,
      "ck": 188,
      "ain": 189,
      "ver": 190,
      "est": 191,
      "Ġthy": 192,
      "Ġsha": 193,
      "ess": 194,
      "ea": 195,
      "Ġdo": 196,
      "Ġwill": 197,
      "am": 198,
      "Ġno": 199,
      "Ġbut": 200,
      "us": 201,
      "and": 202,
      "US": 203,
      "if": 204,
      "Ġse": 205,
      "ge": 206,
      "Th": 207,
      "Ġall": 208,
      "ake": 209,
      "Ġsu": 210,
      "To": 211,
      "Ġher": 212,
      "ru": 213,
      "ion": 214,
      "th": 215,
      "Ġan": 216,
      "ter": 217,
      "ard": 218,
      "Ġlo": 219,
      "han": 220,
      "ell": 221,
      "ear": 222,
      "Ġsp": 223,
      "Ġthee": 224,
      "Ġour": 225,
      "Ġfa": 226,
      "Ġshall": 227,
      "Ġby": 228,
      "UC": 229,
      "il": 230,
      "Ġare": 231,
      "ING": 232,
      "ĠC": 233,
      "rom": 234,
      "Ġne": 235,
      "ho": 236,
      "Ġkn": 237,
      "AN": 238,
      "ĠR": 239,
      "That": 240,
      "Ġv": 241,
      "ER": 242,
      "OR": 243,
      "ast": 244,
      "ct": 245,
      "ous": 246,
      "Ġwhat": 247,
      "ight": 248,
      "Ġsh": 249,
      "ul": 250,
      "ET": 251,
      "Ġ'": 252,
      "ant": 253,
      "ES": 254,
      "Ġup": 255,
      "sel": 256,
      "qu": 257,
      "But": 258,
      "art": 259,
      "Ġgood": 260,
      "row": 261,
      "ine": 262,
      "ath": 263,
      "Ġlord": 264,
      "hich": 265,
      "nt": 266,
      "ust": 267,
      "'ll": 268,
      "one": 269,
      "Ġpr": 270,
      "Ġcom": 271,
      "Ġat": 272,
      "Ġman": 273,
      "What": 274,
      "ĠM": 275,
      "Ġwhe": 276,
      "ĠE": 277,
      "KING": 278,
      "Ġam": 279,
      "end": 280,
      "ic": 281,
      "Ġcon": 282,
      "ble": 283,
      "ry": 284,
      "ong": 285,
      "ie": 286,
      "ive": 287,
      "Ġbl": 288,
      "Ġfrom": 289,
      "ven": 290,
      "ĠG": 291,
      "For": 292,
      "Ġshe": 293,
      "em": 294,
      "Ġgo": 295,
      "are": 296,
      "Ġmore": 297,
      "IC": 298,
      "out": 299,
      "Ġthem": 300,
      "au": 301,
      "Ġwas": 302,
      "oth": 303,
      "other": 304,
      "He": 305,
      "Ġsir": 306,
      "ol": 307,
      "Ġnow": 308,
      "ĠL": 309,
      "Ġhat": 310,
      "ost": 311,
      "Ġif": 312,
      "LO": 313,
      "ind": 314,
      "Ġthere": 315,
      "Ġwould": 316,
      "Ġknow": 317,
      "Ġcan": 318,
      "ers": 319,
      "IUS": 320,
      "ep": 321,
      "self": 322,
      "ARD": 323,
      "ather": 324,
      "fe": 325,
      "ond": 326,
      "res": 327,
      "ate": 328,
      "Ġsay": 329,
      "Ġhere": 330,
      "Ġlove": 331,
      "Ġsw": 332,
      "Ġtheir": 333,
      "Ġbr": 334,
      "pp": 335,
      "Ġor": 336,
      "--": 337,
      "all": 338,
      "ĠS": 339,
      "Ġthan": 340,
      "Ġthen": 341,
      "Ġking": 342,
      "Ġus": 343,
      "ĠO": 344,
      "ĠB": 345,
      "Ġthey": 346,
      "Ġar": 347,
      "od": 348,
      "My": 349,
      "Ġlet": 350,
      "Ġun": 351,
      "ig": 352,
      "Ġwor": 353,
      "ure": 354,
      "ink": 355,
      "ĠH": 356,
      "ort": 357,
      "hy": 358,
      "ĠV": 359,
      "ame": 360,
      "fore": 361,
      "As": 362,
      "Ġmay": 363,
      "el": 364,
      "Ġqu": 365,
      "Ġcome": 366,
      "ook": 367,
      "Whe": 368,
      "ish": 369,
      "LI": 370,
      "Ġwell": 371,
      "KE": 372,
      "ves": 373,
      "Ġj": 374,
      "Ġone": 375,
      "Ġhath": 376,
      "irst": 377,
      "You": 378,
      "Ġmake": 379,
      "reat": 380,
      "ak": 381,
      "gain": 382,
      "Ġmust": 383,
      "ound": 384,
      "ng": 385,
      "Ġgra": 386,
      "Ġwere": 387,
      "Ġho": 388,
      "ci": 389,
      "Ġsee": 390,
      "Ġlike": 391,
      "ue": 392,
      "eak": 393,
      "TIO": 394,
      "Ġshould": 395,
      "ity": 396,
      "Ġpro": 397,
      "ĠP": 398,
      "Ġsa": 399,
      "Ġmad": 400,
      "um": 401,
      "Ġpl": 402,
      "Ġfather": 403,
      "RO": 404,
      "AU": 405,
      "Ġhad": 406,
      "Ġdid": 407,
      "pe": 408,
      "ime": 409,
      "Ġupon": 410,
      "ice": 411,
      "ON": 412,
      "Ġtoo": 413,
      "ence": 414,
      "ĠW": 415,
      "ward": 416,
      "ist": 417,
      "Ġdeath": 418,
      "own": 419,
      "man": 420,
      "ose": 421,
      "Ġen": 422,
      "un": 423,
      "IS": 424,
      "ful": 425,
      "nce": 426,
      "Ġr": 427,
      "Ġpo": 428,
      "Ġspeak": 429,
      "de": 430,
      "entle": 431,
      "io": 432,
      "Ġout": 433,
      "pt": 434,
      "Ġwhich": 435,
      "ICH": 436,
      "Ġfri": 437,
      "OL": 438,
      "DU": 439,
      "Ġagain": 440,
      "DUKE": 441,
      "Ġhow": 442,
      "EL": 443,
      "ick": 444,
      "ĠA": 445,
      "Ġtru": 446,
      "Ġheart": 447,
      "Ġyet": 448,
      "Ġhand": 449,
      "CA": 450,
      "Thou": 451,
      "very": 452,
      "ICHARD": 453,
      "ENTIO": 454,
      "With": 455,
      "ign": 456,
      "Ġsome": 457,
      "ance": 458,
      "Ġwho": 459,
      "Which": 460,
      "If": 461,
      "Ġwhen": 462,
      "ies": 463,
      "Ġmar": 464,
      "ire": 465,
      "Ġmine": 466,
      "Ġhon": 467,
      "har": 468,
      "orn": 469,
      "Ġoff": 470,
      "ince": 471,
      "INC": 472,
      "In": 473,
      "ack": 474,
      "ĠY": 475,
      "Ġson": 476,
      "Ġdis": 477,
      "Ġal": 478,
      "'t": 479,
      "We": 480,
      "uch": 481,
      "wn": 482,
      "Ġhea": 483,
      "First": 484,
      "oy": 485,
      "Ġtime": 486,
      "Ġhear": 487,
      "AB": 488,
      "ec": 489,
      "Ġsuch": 490,
      "ness": 491,
      "LA": 492,
      "Ġbrother": 493,
      "Of": 494,
      "Ġblood": 495,
      "ither": 496,
      "Ġab": 497,
      "UE": 498,
      "Why": 499,
      "Ġthese": 500,
      "No": 501,
      "Ġgive": 502,
      "Ġfo": 503,
      "Ġday": 504,
      "ĠII": 505,
      "Ġear": 506,
      "ĠRICHARD": 507,
      "TER": 508,
      "Ġro": 509,
      "ise": 510,
      "Ġex": 511,
      "Ġlife": 512,
      "This": 513,
      "eet": 514,
      "Ġtell": 515,
      "So": 516,
      "Ġlook": 517,
      "Ġthink": 518,
      "UCH": 519,
      "oul": 520,
      "Ġword": 521,
      "Ġey": 522,
      "Ġwhere": 523,
      "ag": 524,
      "age": 525,
      "een": 526,
      "ther": 527,
      "GLO": 528,
      "Ġtake": 529,
      "UCES": 530,
      "Ġfriend": 531,
      "GLOUCES": 532,
      "GLOUCESTER": 533,
      "ef": 534,
      "erv": 535,
      "ady": 536,
      "rown": 537,
      "Ġdes": 538,
      "ings": 539,
      "ave": 540,
      "not": 541,
      "Ġgentle": 542,
      "urse": 543,
      "How": 544,
      "RY": 545,
      "Ġri": 546,
      "ase": 547,
      "QUE": 548,
      "way": 549,
      "INCENTIO": 550,
      "QUEEN": 551,
      "Ġlea": 552,
      "tis": 553,
      "ĠOF": 554,
      "Ġart": 555,
      "Ġmost": 556,
      "Where": 557,
      "Ġhonour": 558,
      "LAN": 559,
      "Ġmuch": 560,
      "Ġsl": 561,
      "Ġwar": 562,
      "Ġfl": 563,
      "urn": 564,
      "Ġmade": 565,
      "ment": 566,
      "Now": 567,
      "Ġhast": 568,
      "Ġtw": 569,
      "Ġfear": 570,
      "ĠT": 571,
      "Ġbet": 572,
      "ENRY": 573,
      "aught": 574,
      "Is": 575,
      "LE": 576,
      "ber": 577,
      "ff": 578,
      "ĠGod": 579,
      "ough": 580,
      "ved": 581,
      "Ġbre": 582,
      "cc": 583,
      "ower": 584,
      "Ġnever": 585,
      "ĠVINCENTIO": 586,
      "Be": 587,
      "ap": 588,
      "igh": 589,
      "ĠK": 590,
      "Ġgreat": 591,
      "Ġfair": 592,
      "Who": 593,
      "ee": 594,
      "tle": 595,
      "Ġmen": 596,
      "orrow": 597,
      "Ġcou": 598,
      "Ġnew": 599,
      "ĠRome": 600,
      "aster": 601,
      "uke": 602,
      "iz": 603,
      "old": 604,
      "ORK": 605,
      "Ġpart": 606,
      "ation": 607,
      "INIUS": 608,
      "ss": 609,
      "ree": 610,
      "ide": 611,
      "Or": 612,
      "Ġcall": 613,
      "ple": 614,
      "Ġany": 615,
      "Ġheaven": 616,
      "Ġad": 617,
      "Ġcomm": 618,
      "It": 619,
      "Your": 620,
      "Ġstand": 621,
      "Ġcannot": 622,
      "Ġtrue": 623,
      "DW": 624,
      "Ġname": 625,
      "Ġbeen": 626,
      "ears": 627,
      "DWARD": 628,
      "Ġcl": 629,
      "Ġpre": 630,
      "Ġsweet": 631,
      ",--": 632,
      "Ġdoth": 633,
      "Ġpray": 634,
      "hing": 635,
      "PET": 636,
      "UM": 637,
      "Ġnoble": 638,
      "LUC": 639,
      "MEN": 640,
      "TH": 641,
      "Ġown": 642,
      "Ġple": 643,
      "ass": 644,
      "ĠD": 645,
      "ouse": 646,
      "Ġper": 647,
      "Ay": 648,
      "Come": 649,
      "ull": 650,
      "There": 651,
      "Ġwr": 652,
      "Ġdone": 653,
      "ife": 654,
      "aw": 655,
      "Ġtr": 656,
      "Ġway": 657,
      "Ġother": 658,
      "Ġhead": 659,
      "Ġmean": 660,
      "li": 661,
      "red": 662,
      "When": 663,
      "dward": 664,
      "Ġnor": 665,
      "EO": 666,
      "MEO": 667,
      "Ġsc": 668,
      "Ġsoul": 669,
      "Ġpres": 670,
      "ROMEO": 671,
      "ace": 672,
      "ving": 673,
      "Ġnight": 674,
      "Ġbear": 675,
      "ENIUS": 676,
      "aint": 677,
      "ĠCl": 678,
      "Ġworld": 679,
      "MENENIUS": 680,
      "ger": 681,
      "Ġbefore": 682,
      "ause": 683,
      "Ġboth": 684,
      "Ġqueen": 685,
      "per": 686,
      "Then": 687,
      "aughter": 688,
      "RUCH": 689,
      "ock": 690,
      "Ġchi": 691,
      "Here": 692,
      "PETRUCH": 693,
      "PETRUCHIO": 694,
      "OM": 695,
      "able": 696,
      "Ġvery": 697,
      "Ġdead": 698,
      "TES": 699,
      "By": 700,
      "Ġra": 701,
      "ite": 702,
      "Than": 703,
      "the": 704,
      "Ġke": 705,
      "ab": 706,
      "les": 707,
      "ĠF": 708,
      "Ġdown": 709,
      "to": 710,
      "Ġapp": 711,
      "Ġmyself": 712,
      "Ġcont": 713,
      "GR": 714,
      "HA": 715,
      "Ġwh": 716,
      "Ġrem": 717,
      "ĠLord": 718,
      "Ġarm": 719,
      "Ġthus": 720,
      "IOLAN": 721,
      "ilt": 722,
      "ORIOLAN": 723,
      "ORIOLANUS": 724,
      "CORIOLANUS": 725,
      "Sec": 726,
      "Ġleave": 727,
      "Second": 728,
      "Ġbeing": 729,
      "ction": 730,
      "ĠEdward": 731,
      "Nor": 732,
      "sw": 733,
      "Ġunt": 734,
      "ress": 735,
      "Ġgrace": 736,
      "less": 737,
      "Ġbeg": 738,
      "Ġeyes": 739,
      "BA": 740,
      "land": 741,
      "Ġmother": 742,
      "ran": 743,
      "Ġma": 744,
      "Ġold": 745,
      "Ġim": 746,
      "INA": 747,
      "ĠEDWARD": 748,
      "itiz": 749,
      "itizen": 750,
      "ps": 751,
      "Ġlong": 752,
      "Ġever": 753,
      "ĠMar": 754,
      "Ġlive": 755,
      "Ġchild": 756,
      "Let": 757,
      "me": 758,
      "Ġwife": 759,
      "She": 760,
      "Ġaway": 761,
      "Ġrep": 762,
      "ĠIII": 763,
      "Ġwom": 764,
      "Ġpoor": 765,
      "Ġfriends": 766,
      "come": 767,
      "for": 768,
      "wick": 769,
      "Ġaf": 770,
      "Ġmight": 771,
      "nder": 772,
      "Ġstay": 773,
      "eace": 774,
      "ks": 775,
      "oud": 776,
      "Ġdie": 777,
      "atch": 778,
      "led": 779,
      "ĠJ": 780,
      "Ġru": 781,
      "arwick": 782,
      "Ġcomes": 783,
      "Ġcons": 784,
      "Ġcrown": 785,
      "ows": 786,
      "Ġmany": 787,
      "Ġpe": 788,
      "Tis": 789,
      "hall": 790,
      "ison": 791,
      "Ġle": 792,
      "ĠYORK": 793,
      "lo": 794,
      "uck": 795,
      "iss": 796,
      "Ġhouse": 797,
      "Ġhar": 798,
      "Ġthought": 799,
      "Ġrest": 800,
      "ISAB": 801,
      "ELLA": 802,
      "ISABELLA": 803,
      "ian": 804,
      "erc": 805,
      "Ġcour": 806,
      "RAN": 807,
      "Ġent": 808,
      "Ġlie": 809,
      "che": 810,
      "Ġset": 811,
      "JU": 812,
      "well": 813,
      "ors": 814,
      "atter": 815,
      "LIET": 816,
      "ONTES": 817,
      "ĠWarwick": 818,
      "LEONTES": 819,
      "JULIET": 820,
      "Nay": 821,
      "int": 822,
      "ittle": 823,
      "Ġdaughter": 824,
      "Ġgone": 825,
      "Ġbetter": 826,
      "MI": 827,
      "rant": 828,
      "ought": 829,
      "Ġprince": 830,
      "DY": 831,
      "His": 832,
      "Ġtong": 833,
      "Ġwit": 834,
      "Ġnothing": 835,
      "CE": 836,
      "VOL": 837,
      "ENCE": 838,
      "LADY": 839,
      "BR": 840,
      "TA": 841,
      "cl": 842,
      "ied": 843,
      "Ġkeep": 844,
      "Go": 845,
      "Well": 846,
      "ces": 847,
      "ious": 848,
      "os": 849,
      "Ġsle": 850,
      "Ġres": 851,
      "hard": 852,
      "Ġnews": 853,
      "SIC": 854,
      "ft": 855,
      "ier": 856,
      "Ġtri": 857,
      "Ġmo": 858,
      "ret": 859,
      "ont": 860,
      "Ġthose": 861,
      "Ġgri": 862,
      "ool": 863,
      "une": 864,
      "SICINIUS": 865,
      "Not": 866,
      "Ġlittle": 867,
      "Ġlords": 868,
      "Ġagainst": 869,
      "ford": 870,
      "Ġbest": 871,
      "Ġhour": 872,
      "Ġhence": 873,
      "ardon": 874,
      "akes": 875,
      "lse": 876,
      "Ġacc": 877,
      "sed": 878,
      "Ġface": 879,
      "ult": 880,
      "Ġfoll": 881,
      "On": 882,
      "ew": 883,
      "ud": 884,
      "ark": 885,
      "Ġyoung": 886,
      "Ġend": 887,
      "ork": 888,
      "Ġthing": 889,
      "Ġstill": 890,
      "Ġkind": 891,
      "ield": 892,
      "ST": 893,
      "Ġpri": 894,
      "Ġpur": 895,
      "alk": 896,
      "Thy": 897,
      "Ġcomp": 898,
      "LUCIO": 899,
      "ale": 900,
      "ins": 901,
      "ert": 902,
      "Ġput": 903,
      "Ġpower": 904,
      "ĠIV": 905,
      "ichard": 906,
      "Ġtwo": 907,
      "Ġcha": 908,
      "Ġhimself": 909,
      "Pro": 910,
      "iness": 911,
      "Ġfirst": 912,
      "Ġpeace": 913,
      "Ġgu": 914,
      "Ġelse": 915,
      "ried": 916,
      "Ġdear": 917,
      "cious": 918,
      "Sir": 919,
      "ail": 920,
      "ty": 921,
      "ason": 922,
      "hile": 923,
      "Ġsub": 924,
      "Ġunto": 925,
      "ile": 926,
      "ray": 927,
      "Ġtill": 928,
      "Ġsm": 929,
      "uty": 930,
      "RI": 931,
      "ZAB": 932,
      "ect": 933,
      "Ġtra": 934,
      "Ġbid": 935,
      "Ġback": 936,
      "Ġdre": 937,
      "Ġhus": 938,
      "ETH": 939,
      "ĠELI": 940,
      "Ġtherefore": 941,
      "Ġearth": 942,
      "Ġwords": 943,
      "Ġcount": 944,
      "ZABETH": 945,
      "ĠELIZABETH": 946,
      "Have": 947,
      "band": 948,
      "ius": 949,
      "men": 950,
      "ople": 951,
      "yal": 952,
      "Ġfind": 953,
      "Ġcould": 954,
      "Ġtongue": 955,
      "orse": 956,
      "Ġlady": 957,
      "Ġthine": 958,
      "Ġneed": 959,
      "ĠYork": 960,
      "HENRY": 961,
      "get": 962,
      "tw": 963,
      "Ġtre": 964,
      "Ġfell": 965,
      "enry": 966,
      "Ġhigh": 967,
      "Ġforth": 968,
      "Ġhope": 969,
      "MER": 970,
      "St": 971,
      "lp": 972,
      "Ġhome": 973,
      "vere": 974,
      "eth": 975,
      "Ġseem": 976,
      "eech": 977,
      "ĠRomeo": 978,
      "Ġhusband": 979,
      "CL": 980,
      "Ġduke": 981,
      "Ġright": 982,
      "GE": 983,
      "WAR": 984,
      "WIC": 985,
      "fort": 986,
      "ĠWhat": 987,
      "rer": 988,
      "Ġban": 989,
      "uth": 990,
      "Ġthough": 991,
      "ĠVI": 992,
      "WARWIC": 993,
      "WARWICK": 994,
      "UT": 995,
      "ach": 996,
      "ix": 997,
      "Ġmind": 998,
      "Ġbra": 999,
      "ister": 1000,
      "Ġche": 1001,
      "Ġchar": 1002,
      "hip": 1003,
      "ĠHENRY": 1004,
      "Ġpeople": 1005,
      "Nurse": 1006,
      "ds": 1007,
      "ged": 1008,
      "ĠCitizen": 1009,
      "ren": 1010,
      "They": 1011,
      "ĠHenry": 1012,
      "HAM": 1013,
      "IAN": 1014,
      "LET": 1015,
      "PU": 1016,
      "eed": 1017,
      "Ġbri": 1018,
      "Ġchan": 1019,
      "Ġlaw": 1020,
      "ĠRichard": 1021,
      "Ġshow": 1022,
      "Ġconf": 1023,
      "Ġhands": 1024,
      "PULET": 1025,
      "EY": 1026,
      "be": 1027,
      "Ġmaster": 1028,
      "Ġwhy": 1029,
      "Ġco": 1030,
      "Ġcause": 1031,
      "Ġgl": 1032,
      "Ġonce": 1033,
      "Ġsaid": 1034,
      "Ġimp": 1035,
      "Good": 1036,
      "MIO": 1037,
      "Shall": 1038,
      "Ġbod": 1039,
      "Ġnone": 1040,
      "ousin": 1041,
      "Ġjoy": 1042,
      "ervant": 1043,
      "All": 1044,
      "bt": 1045,
      "Ġfort": 1046,
      "Ġbring": 1047,
      "Yet": 1048,
      "Ġdou": 1049,
      "ates": 1050,
      "Ġevery": 1051,
      "UCKING": 1052,
      "BRUT": 1053,
      "UCKINGHAM": 1054,
      "BRUTUS": 1055,
      "BRO": 1056,
      "BUCKINGHAM": 1057,
      "From": 1058,
      "TRAN": 1059,
      "iet": 1060,
      "Ġmist": 1061,
      "Ġpass": 1062,
      "ird": 1063,
      "Ġlight": 1064,
      "INGBRO": 1065,
      "ESS": 1066,
      "ĠBOL": 1067,
      "TRANIO": 1068,
      "INGBROKE": 1069,
      "ĠBOLINGBROKE": 1070,
      "Do": 1071,
      "Will": 1072,
      "lt": 1073,
      "vost": 1074,
      "Ġwo": 1075,
      "Ġnat": 1076,
      "Ġthr": 1077,
      "Ġroyal": 1078,
      "swer": 1079,
      "PER": 1080,
      "TIS": 1081,
      "cle": 1082,
      "Ġtears": 1083,
      "its": 1084,
      "Ġcame": 1085,
      "ary": 1086,
      "ĠMAR": 1087,
      "Ġwhose": 1088,
      "Ġplease": 1089,
      "lf": 1090,
      "vy": 1091,
      "ory": 1092,
      "Ġpardon": 1093,
      "roke": 1094,
      "ĠAn": 1095,
      "Cl": 1096,
      "GAR": 1097,
      "NE": 1098,
      "pose": 1099,
      "Ġbes": 1100,
      "Ġboy": 1101,
      "Ġfull": 1102,
      "arry": 1103,
      "Ġheard": 1104,
      "Ġhapp": 1105,
      "Ġdev": 1106,
      "Ġjust": 1107,
      "Ġwrong": 1108,
      "Ġpresent": 1109,
      "ĠMARGAR": 1110,
      "ĠMARGARET": 1111,
      "ATH": 1112,
      "eel": 1113,
      "Ġsince": 1114,
      "Ġmis": 1115,
      "ens": 1116,
      "Ġland": 1117,
      "Ġlast": 1118,
      "Ġere": 1119,
      "Ġstate": 1120,
      "Ġplace": 1121,
      "MIL": 1122,
      "bl": 1123,
      "sand": 1124,
      "Ġmeet": 1125,
      "Ġunder": 1126,
      "Ġkill": 1127,
      "Ġafter": 1128,
      "HOR": 1129,
      "cent": 1130,
      "Ġsorrow": 1131,
      "ition": 1132,
      "Ġcare": 1133,
      "Ġthousand": 1134,
      "esty": 1135,
      "ANGE": 1136,
      "ORD": 1137,
      "Ġhold": 1138,
      "GRE": 1139,
      "ANGELO": 1140,
      "CU": 1141,
      "Our": 1142,
      "Ġhelp": 1143,
      "ARINA": 1144,
      "arence": 1145,
      "Ġwhom": 1146,
      "Ġfollow": 1147,
      "KATH": 1148,
      "day": 1149,
      "Ġfar": 1150,
      "Ġless": 1151,
      "Ġhither": 1152,
      "ceive": 1153,
      "irt": 1154,
      "Ġweep": 1155,
      "Ġshame": 1156,
      "selves": 1157,
      "cius": 1158,
      "Ġenem": 1159,
      "Ġabout": 1160,
      "Ġeye": 1161,
      "KATHARINA": 1162,
      "iol": 1163,
      "Ġfal": 1164,
      "Ġfool": 1165,
      "ons": 1166,
      "Ġpat": 1167,
      "urde": 1168,
      "Ġsun": 1169,
      "Ġanswer": 1170,
      "air": 1171,
      "Ġch": 1172,
      "asure": 1173,
      "Ġfall": 1174,
      "Ġmaid": 1175,
      "LUS": 1176,
      "Un": 1177,
      "Up": 1178,
      "ount": 1179,
      "Ġbus": 1180,
      "Ġcousin": 1181,
      "thy": 1182,
      "ESCA": 1183,
      "Ġhate": 1184,
      "Ġgracious": 1185,
      "Ġgentleman": 1186,
      "ĠKing": 1187,
      "Ġgrief": 1188,
      "ESCALUS": 1189,
      "An": 1190,
      "ject": 1191,
      "ove": 1192,
      "Ġmakes": 1193,
      "Ġinto": 1194,
      "imes": 1195,
      "Ġstri": 1196,
      "Hath": 1197,
      "iv": 1198,
      "ild": 1199,
      "Ġstre": 1200,
      "ĠEng": 1201,
      "Ġwoman": 1202,
      "DUCH": 1203,
      "Ġturn": 1204,
      "Ġhum": 1205,
      "Ġbel": 1206,
      "alt": 1207,
      "Ġdost": 1208,
      "Ġcomfort": 1209,
      "ices": 1210,
      "Ġcoun": 1211,
      "ĠDuke": 1212,
      "Ġcourt": 1213,
      "Ġsleep": 1214,
      "urderer": 1215,
      "DUCHESS": 1216,
      "Lord": 1217,
      "pher": 1218,
      "Ġtalk": 1219,
      "itor": 1220,
      "Ġover": 1221,
      "Ġbody": 1222,
      "morrow": 1223,
      "Ġwilt": 1224,
      "Ġbu": 1225,
      "Ġgr": 1226,
      "ute": 1227,
      "gelo": 1228,
      "deed": 1229,
      "ĠMarcius": 1230,
      "IA": 1231,
      "ience": 1232,
      "Ġi": 1233,
      "ised": 1234,
      "Ġbed": 1235,
      "Ġfault": 1236,
      "Ġatt": 1237,
      "ieve": 1238,
      "Ġprove": 1239,
      "Ġplay": 1240,
      "CAMIL": 1241,
      "ĠClarence": 1242,
      "CAMILLO": 1243,
      "God": 1244,
      "ere": 1245,
      "ily": 1246,
      "Ġsound": 1247,
      "Ġdra": 1248,
      "ans": 1249,
      "omet": 1250,
      "Ġinst": 1251,
      "Ġwel": 1252,
      "ade": 1253,
      "Ġret": 1254,
      "Ġdeed": 1255,
      "Ġthank": 1256,
      "TEN": 1257,
      "Ġser": 1258,
      "Ġbo": 1259,
      "Ġfight": 1260,
      "Ġindeed": 1261,
      "illain": 1262,
      "hold": 1263,
      "Ġvo": 1264,
      "Ġsword": 1265,
      "ĠAngelo": 1266,
      "HORTEN": 1267,
      "Ġfalse": 1268,
      "HORTENS": 1269,
      "FRI": 1270,
      "Sh": 1271,
      "Ġuse": 1272,
      "Ġeven": 1273,
      "Ġsovere": 1274,
      "Ġanother": 1275,
      "Ġgrave": 1276,
      "Ġadv": 1277,
      "Provost": 1278,
      "Ġfellow": 1279,
      "Upon": 1280,
      "HORTENSIO": 1281,
      "FRIAR": 1282,
      ",'": 1283,
      "PTIS": 1284,
      "eal": 1285,
      "Ġcur": 1286,
      "Ġhas": 1287,
      "Ġem": 1288,
      "ury": 1289,
      "pect": 1290,
      "BAPTIS": 1291,
      "Ġbanish": 1292,
      "Ġfortune": 1293,
      "BAPTISTA": 1294,
      "CUS": 1295,
      "COM": 1296,
      "TOL": 1297,
      "YCUS": 1298,
      "pl": 1299,
      "pen": 1300,
      "ouch": 1301,
      "Ġmerc": 1302,
      "Ġmatter": 1303,
      "Ġwant": 1304,
      "Ġreven": 1305,
      "Ġass": 1306,
      "Ġsend": 1307,
      "Ġprison": 1308,
      "fect": 1309,
      "AUTOL": 1310,
      "Ġrather": 1311,
      "Ġcountry": 1312,
      "Ġdoubt": 1313,
      "COMINIUS": 1314,
      "AUTOLYCUS": 1315,
      ".'": 1316,
      "Are": 1317,
      "Even": 1318,
      "More": 1319,
      "Ġwish": 1320,
      "Ġyears": 1321,
      "Ġreason": 1322,
      "Ġlies": 1323,
      "Ġonly": 1324,
      "ARENCE": 1325,
      "Third": 1326,
      "Ġvirt": 1327,
      "Ġtruth": 1328,
      "Would": 1329,
      "ior": 1330,
      "ms": 1331,
      "of": 1332,
      "rance": 1333,
      "ĠBut": 1334,
      "Ġdan": 1335,
      "Ġpers": 1336,
      "any": 1337,
      "Ġbreath": 1338,
      "Ġarms": 1339,
      "Ġdream": 1340,
      "CLARENCE": 1341,
      "pherd": 1342,
      "BEN": 1343,
      "MAR": 1344,
      "NOR": 1345,
      "dd": 1346,
      "der": 1347,
      "Ġsent": 1348,
      "ener": 1349,
      "Ġgi": 1350,
      "Ġstra": 1351,
      "Ġshalt": 1352,
      "Ġdisc": 1353,
      "VOLIO": 1354,
      "Clown": 1355,
      "Ġbusiness": 1356,
      "BENVOLIO": 1357,
      "Al": 1358,
      "At": 1359,
      "PRO": 1360,
      "SPER": 1361,
      "by": 1362,
      "hed": 1363,
      "Ġsen": 1364,
      "Ġprom": 1365,
      "Ġholy": 1366,
      "Ġenough": 1367,
      "erving": 1368,
      "Ġcommand": 1369,
      "UMIO": 1370,
      "GRUMIO": 1371,
      "PROSPER": 1372,
      "PROSPERO": 1373,
      "ia": 1374,
      "ken": 1375,
      "Ġsea": 1376,
      "Ġwind": 1377,
      "itt": 1378,
      "Ġcra": 1379,
      "Ġlay": 1380,
      "ars": 1381,
      "Ġpity": 1382,
      "ator": 1383,
      "Ġbea": 1384,
      "Ġhang": 1385,
      "Ġstran": 1386,
      "Ġsold": 1387,
      "Ġspir": 1388,
      "Ġfare": 1389,
      "Ġproud": 1390,
      "ĠMurderer": 1391,
      "Ġswear": 1392,
      "Ġcontent": 1393,
      "MERCU": 1394,
      "MERCUTIO": 1395,
      "ike": 1396,
      "Ġdare": 1397,
      "eter": 1398,
      "Ġlives": 1399,
      "Ġdep": 1400,
      "Ġsec": 1401,
      "Ġvillain": 1402,
      "gainst": 1403,
      "ĠKate": 1404,
      "LUCENTIO": 1405,
      "Ġremem": 1406,
      "Ġnature": 1407,
      "Ġwelcome": 1408,
      "POM": 1409,
      "Tw": 1410,
      "com": 1411,
      "unt": 1412,
      "Ġtend": 1413,
      "ham": 1414,
      "Ġfree": 1415,
      "Ġgre": 1416,
      "Ġget": 1417,
      "Ġint": 1418,
      "Ġwithin": 1419,
      "Ġkiss": 1420,
      "ester": 1421,
      "ĠCome": 1422,
      "Ġgods": 1423,
      "Ġsaw": 1424,
      "Ġmadam": 1425,
      "LAND": 1426,
      "Ġhappy": 1427,
      "Ġsovereign": 1428,
      "POMP": 1429,
      "LINA": 1430,
      "PAU": 1431,
      "apt": 1432,
      "Ġserv": 1433,
      "Ġsister": 1434,
      "Ġsomet": 1435,
      "hal": 1436,
      "Ġfoul": 1437,
      "Ġcity": 1438,
      "vers": 1439,
      "Were": 1440,
      "Ġbeseech": 1441,
      "PAULINA": 1442,
      "YORK": 1443,
      "ient": 1444,
      "use": 1445,
      "ery": 1446,
      "Ġden": 1447,
      "Ġyield": 1448,
      "Ġthree": 1449,
      "Ġoath": 1450,
      "Ġyours": 1451,
      "onder": 1452,
      "ague": 1453,
      "Ġbreak": 1454,
      "Ġmeans": 1455,
      "Ġsubject": 1456,
      "gether": 1457,
      "GREMIO": 1458,
      "POMPEY": 1459,
      "NIA": 1460,
      "OLI": 1461,
      "POLI": 1462,
      "XEN": 1463,
      "balt": 1464,
      "ybalt": 1465,
      "ĠNor": 1466,
      "Ġaw": 1467,
      "Ġmer": 1468,
      "Ġwhile": 1469,
      "Ġborn": 1470,
      "Ġthings": 1471,
      "Ġhorse": 1472,
      "anc": 1473,
      "usic": 1474,
      "ANT": 1475,
      "Ġbloody": 1476,
      "Ġlooks": 1477,
      "eft": 1478,
      "UMNIA": 1479,
      "like": 1480,
      "ches": 1481,
      "VOLUMNIA": 1482,
      "POLIXEN": 1483,
      "POLIXENES": 1484,
      "GON": 1485,
      "Her": 1486,
      "rong": 1487,
      "up": 1488,
      "ues": 1489,
      "Ġtem": 1490,
      "Ġwin": 1491,
      "Ġwound": 1492,
      "Ġfire": 1493,
      "enger": 1494,
      "Ġyourself": 1495,
      "Ġsupp": 1496,
      "Ġspo": 1497,
      "Ġfaith": 1498,
      "INGS": 1499,
      "ĠServing": 1500,
      "Ġmaj": 1501,
      "STINGS": 1502,
      "Ġtraitor": 1503,
      "centio": 1504,
      "ĠServingman": 1505,
      "RENCE": 1506,
      "Say": 1507,
      "bs": 1508,
      "broke": 1509,
      "rem": 1510,
      "Ġdru": 1511,
      "Ġlam": 1512,
      "essenger": 1513,
      "ĠLAU": 1514,
      "Ġmark": 1515,
      "Ġcommon": 1516,
      "HASTINGS": 1517,
      "Ġchildren": 1518,
      "ertain": 1519,
      "Ġmistress": 1520,
      "ĠLAURENCE": 1521,
      "BY": 1522,
      "BER": 1523,
      "Ġcond": 1524,
      "Ġbeat": 1525,
      "Ġrequ": 1526,
      "Ġdef": 1527,
      "Ġval": 1528,
      "Ġuncle": 1529,
      "Therefore": 1530,
      "form": 1531,
      "Ġmajesty": 1532,
      "CLI": 1533,
      "FF": 1534,
      "Look": 1535,
      "Was": 1536,
      "Ġaff": 1537,
      "Ġsin": 1538,
      "Ġmet": 1539,
      "Ġlate": 1540,
      "Ġleft": 1541,
      "Ġtold": 1542,
      "Ġsoon": 1543,
      "Ġseen": 1544,
      "Ġsave": 1545,
      "Ġdays": 1546,
      "UMBER": 1547,
      "THUMBER": 1548,
      "Ġwoe": 1549,
      "ĠEngland": 1550,
      "NORTHUMBER": 1551,
      "Ġtender": 1552,
      "CLIFF": 1553,
      "NORTHUMBERLAND": 1554,
      "ID": 1555,
      "Take": 1556,
      "bed": 1557,
      "ever": 1558,
      "ring": 1559,
      "ten": 1560,
      "Ġsight": 1561,
      "Ġmon": 1562,
      "Ġgener": 1563,
      "ides": 1564,
      "idow": 1565,
      "Ġdoes": 1566,
      "Though": 1567,
      "Ġreturn": 1568,
      "Ġmercy": 1569,
      "Ġfarewell": 1570,
      "ac": 1571,
      "dom": 1572,
      "mp": 1573,
      "ĠAN": 1574,
      "hes": 1575,
      "Ġsit": 1576,
      "Ġsad": 1577,
      "rel": 1578,
      "Ġdeep": 1579,
      "ters": 1580,
      "Ġgold": 1581,
      "unes": 1582,
      "Ġmarry": 1583,
      "Ġheavy": 1584,
      "Ġfoot": 1585,
      "Ġwarrant": 1586,
      "ĠJul": 1587,
      "Ġpurpose": 1588,
      "Ġthrough": 1589,
      "Ġdanger": 1590,
      "ĠANNE": 1591,
      "Ah": 1592,
      "Did": 1593,
      "Give": 1594,
      "PR": 1595,
      "aim": 1596,
      "ict": 1597,
      "mer": 1598,
      "so": 1599,
      "und": 1600,
      "vent": 1601,
      "Ġill": 1602,
      "Ġcho": 1603,
      "Ġcold": 1604,
      "Ġnurse": 1605,
      "Ġtogether": 1606,
      "Ġgrow": 1607,
      "ours": 1608,
      "ifford": 1609,
      "Ġsure": 1610,
      "earn": 1611,
      "CAPULET": 1612,
      "ignior": 1613,
      "INCE": 1614,
      "Ġdeser": 1615,
      "ments": 1616,
      "PRINCE": 1617,
      "az": 1618,
      "aid": 1619,
      "ca": 1620,
      "oint": 1621,
      "Ġtimes": 1622,
      "oriol": 1623,
      "ingbroke": 1624,
      "ceed": 1625,
      "Ġwithout": 1626,
      "enty": 1627,
      "Ġask": 1628,
      "ross": 1629,
      "ush": 1630,
      "Ġlost": 1631,
      "arewell": 1632,
      "olingbroke": 1633,
      "Ġpluck": 1634,
      "Ġreport": 1635,
      "Ġliege": 1636,
      "Ġbelieve": 1637,
      "Ġspirit": 1638,
      "ling": 1639,
      "sh": 1640,
      "xt": 1641,
      "Ġair": 1642,
      "Ġage": 1643,
      "outh": 1644,
      "Ġwat": 1645,
      "Ġheir": 1646,
      "ets": 1647,
      "ains": 1648,
      "Ġthyself": 1649,
      "ift": 1650,
      "Ġloss": 1651,
      "ĠMont": 1652,
      "Ġsays": 1653,
      "ĠBolingbroke": 1654,
      "Whose": 1655,
      "One": 1656,
      "Ġstrange": 1657,
      "ALO": 1658,
      "Had": 1659,
      "ial": 1660,
      "no": 1661,
      "ner": 1662,
      "Ġbat": 1663,
      "Ġcry": 1664,
      "Ġlearn": 1665,
      "ced": 1666,
      "Ġsuff": 1667,
      "aking": 1668,
      "Ġears": 1669,
      "Ġhaste": 1670,
      "ĠClifford": 1671,
      "Ġentreat": 1672,
      "Ġdevil": 1673,
      "Ġground": 1674,
      "Should": 1675,
      "Ġperson": 1676,
      "ĠJuliet": 1677,
      "Like": 1678,
      "Wh": 1679,
      "ges": 1680,
      "night": 1681,
      "Ġmur": 1682,
      "ined": 1683,
      "Ġfly": 1684,
      "Ġtoward": 1685,
      "Ġpast": 1686,
      "oman": 1687,
      "let": 1688,
      "Ġfast": 1689,
      "Ġvis": 1690,
      "aud": 1691,
      "ĠLu": 1692,
      "Ġpoint": 1693,
      "Ġfriar": 1694,
      "Ġdisp": 1695,
      "Ġslain": 1696,
      "Ġbetw": 1697,
      "ĠFrance": 1698,
      "ixt": 1699,
      "Ġjustice": 1700,
      "Ġstraight": 1701,
      "Ġremember": 1702,
      "APULET": 1703,
      "FL": 1704,
      "FID": 1705,
      "IZ": 1706,
      "May": 1707,
      "Some": 1708,
      "Ġord": 1709,
      "Ġsil": 1710,
      "ina": 1711,
      "Ġbold": 1712,
      "Ġcurse": 1713,
      "Ġnear": 1714,
      "ution": 1715,
      "Ġstrong": 1716,
      "These": 1717,
      "ĠCAPULET": 1718,
      "ORIZ": 1719,
      "Ġworthy": 1720,
      "Ġquick": 1721,
      "AUFID": 1722,
      "entleman": 1723,
      "Ġtrust": 1724,
      "Ġalone": 1725,
      "Ġdesire": 1726,
      "Ġinstru": 1727,
      "Ġbeauty": 1728,
      "Ġservice": 1729,
      "FLORIZ": 1730,
      "AUFIDIUS": 1731,
      "FLORIZEL": 1732,
      "Can": 1733,
      "SE": 1734,
      "Tell": 1735,
      "VER": 1736,
      "gs": 1737,
      "ning": 1738,
      "ship": 1739,
      "with": 1740,
      "Ġtouch": 1741,
      "Ġfound": 1742,
      "ithe": 1743,
      "ĠIs": 1744,
      "adam": 1745,
      "Ġready": 1746,
      "ION": 1747,
      "Ġbrought": 1748,
      "ured": 1749,
      "Ġposs": 1750,
      "ĠTybalt": 1751,
      "Ġrun": 1752,
      "Ġhard": 1753,
      "Ġenemy": 1754,
      "Ġrevenge": 1755,
      "Ġgeneral": 1756,
      "audio": 1757,
      "!'": 1758,
      "Ha": 1759,
      "ible": 1760,
      "vo": 1761,
      "ĠHere": 1762,
      "Ġwoo": 1763,
      "Ġduty": 1764,
      "enator": 1765,
      "Ġgrant": 1766,
      "Ġinf": 1767,
      "cept": 1768,
      "Ġitself": 1769,
      "amill": 1770,
      "Ġlose": 1771,
      "aunt": 1772,
      "Ġknows": 1773,
      "Ġcanst": 1774,
      "ĠSenator": 1775,
      "inks": 1776,
      "umber": 1777,
      "Ġmarried": 1778,
      "Ġthoughts": 1779,
      "Ġcharge": 1780,
      "Against": 1781,
      "Bec": 1782,
      "CIUS": 1783,
      "RICHARD": 1784,
      "Sp": 1785,
      "cester": 1786,
      "eep": 1787,
      "gu": 1788,
      "lou": 1789,
      "sue": 1790,
      "ua": 1791,
      "ĠYou": 1792,
      "Ġmorn": 1793,
      "Ġwear": 1794,
      "riage": 1795,
      "Ġread": 1796,
      "Ġdeli": 1797,
      "Ġspeed": 1798,
      "Ġquar": 1799,
      "Ġprof": 1800,
      "Ġtwenty": 1801,
      "Ġstands": 1802,
      "BAST": 1803,
      "Shepherd": 1804,
      "ched": 1805,
      "Ġhours": 1806,
      "Ġconfess": 1807,
      "Ġstreng": 1808,
      "SEBAST": 1809,
      "ithee": 1810,
      "SEBASTIAN": 1811,
      "OW": 1812,
      "cess": 1813,
      "ĠN": 1814,
      "Ġmock": 1815,
      "Ġfur": 1816,
      "Ġfore": 1817,
      "Ġfield": 1818,
      "ones": 1819,
      "Ġdiv": 1820,
      "Ġcar": 1821,
      "Ġyouth": 1822,
      "Ġpost": 1823,
      "Ġhell": 1824,
      "ingham": 1825,
      "Ġhalf": 1826,
      "oop": 1827,
      "Thus": 1828,
      "ĠRi": 1829,
      "olk": 1830,
      "fection": 1831,
      "ĠHast": 1832,
      "Ġjud": 1833,
      "ump": 1834,
      "Ġexec": 1835,
      "Ġfearful": 1836,
      "Ġcounsel": 1837,
      "amillo": 1838,
      "BION": 1839,
      "Com": 1840,
      "DEL": 1841,
      "Till": 1842,
      "most": 1843,
      "pare": 1844,
      "Ġter": 1845,
      "Ġmin": 1846,
      "Ġwret": 1847,
      "Ġbos": 1848,
      "Ġpar": 1849,
      "Ġbehold": 1850,
      "Ġinc": 1851,
      "Ġeach": 1852,
      "ads": 1853,
      "Ġrec": 1854,
      "Ġdel": 1855,
      "ĠCoriol": 1856,
      "ols": 1857,
      "Ġwork": 1858,
      "ortal": 1859,
      "Ġhearts": 1860,
      "Ġmarriage": 1861,
      "Ġdesp": 1862,
      "ĠClaudio": 1863,
      "itizens": 1864,
      "uckingham": 1865,
      "Ġresol": 1866,
      "MARCIUS": 1867,
      "ĠMontague": 1868,
      "loucester": 1869,
      "BIONDEL": 1870,
      "Ġbosom": 1871,
      "BIONDELLO": 1872,
      "Away": 1873,
      "MON": 1874,
      "Madam": 1875,
      "bly": 1876,
      "folk": 1877,
      "iers": 1878,
      "now": 1879,
      "ĠThe": 1880,
      "Ġtit": 1881,
      "Ġten": 1882,
      "Ġtale": 1883,
      "Ġbound": 1884,
      "Ġdam": 1885,
      "Ġcut": 1886,
      "ench": 1887,
      "Ġye": 1888,
      "Ġopen": 1889,
      "rah": 1890,
      "alm": 1891,
      "ĠCap": 1892,
      "Ġshort": 1893,
      "Ġknown": 1894,
      "ĠBuckingham": 1895,
      "Ġseek": 1896,
      "Ġharm": 1897,
      "Ġcompany": 1898,
      "Ġguilt": 1899,
      "Ġhighness": 1900,
      "Ġstrike": 1901,
      "Ġattend": 1902,
      "Ġserve": 1903,
      "Ġmurder": 1904,
      "ĠHastings": 1905,
      "Farewell": 1906,
      "HER": 1907,
      "OP": 1908,
      "chan": 1909,
      "hood": 1910,
      "Ġve": 1911,
      "ĠHe": 1912,
      "ĠAU": 1913,
      "Ġag": 1914,
      "Ġsat": 1915,
      "Ġside": 1916,
      "Ġwhi": 1917,
      "Ġwatch": 1918,
      "rest": 1919,
      "ished": 1920,
      "Ġfeel": 1921,
      "Ġdish": 1922,
      "Ġdist": 1923,
      "ents": 1924,
      "ander": 1925,
      "Ġsuit": 1926,
      "Ġloving": 1927,
      "ONIO": 1928,
      "Ġhonest": 1929,
      "Ġheavens": 1930,
      "Ġtrib": 1931,
      "MERLE": 1932,
      "Ġdraw": 1933,
      "Ġvoices": 1934,
      "Ġsomething": 1935,
      "ANTONIO": 1936,
      "Ġstrength": 1937,
      "ĠAUMERLE": 1938,
      "Marry": 1939,
      "Pray": 1940,
      "See": 1941,
      "ZALO": 1942,
      "fid": 1943,
      "ging": 1944,
      "Ġact": 1945,
      "Ġsake": 1946,
      "Ġwast": 1947,
      "Ġwonder": 1948,
      "Ġwidow": 1949,
      "Ġbit": 1950,
      "Ġcor": 1951,
      "Ġsto": 1952,
      "Ġstir": 1953,
      "ĠGentleman": 1954,
      "ĠGloucester": 1955,
      "ĠLanc": 1956,
      "Ġdidst": 1957,
      "Ġgentlemen": 1958,
      "Ġcloud": 1959,
      "Ġwomen": 1960,
      "ethinks": 1961,
      "Ġenemies": 1962,
      "GONZALO": 1963,
      "ĠLancaster": 1964,
      "Unt": 1965,
      "ives": 1966,
      "su": 1967,
      "Ġsing": 1968,
      "Ġmusic": 1969,
      "rew": 1970,
      "Ġbreat": 1971,
      "Ġdr": 1972,
      "Ġpra": 1973,
      "Ġpie": 1974,
      "Ġpale": 1975,
      "Ġgates": 1976,
      "oose": 1977,
      "race": 1978,
      "ils": 1979,
      "ĠCamillo": 1980,
      "Ġnext": 1981,
      "Ġknew": 1982,
      "Ġcoming": 1983,
      "Ġthanks": 1984,
      "Ġclose": 1985,
      "Ġpleasure": 1986,
      "Ġsouls": 1987,
      "ianca": 1988,
      "Ġcourse": 1989,
      "Ġenter": 1990,
      "Ġwithal": 1991,
      "Ġbrave": 1992,
      "Ġchee": 1993,
      "ceived": 1994,
      "Ġtitle": 1995,
      "DIO": 1996,
      "fter": 1997,
      "ne": 1998,
      "vour": 1999,
      "you": 2000,
      "Ġty": 2001,
      "Ġwa": 2002,
      "Ġbur": 2003,
      "Ġfit": 2004,
      "oward": 2005,
      "Ġgar": 2006,
      "Ġbecome": 2007,
      "etch": 2008,
      "etru": 2009,
      "Ġforg": 2010,
      "Ġweak": 2011,
      "Ġeither": 2012,
      "Ġlips": 2013,
      "rust": 2014,
      "els": 2015,
      "Ġjest": 2016,
      "Ġplain": 2017,
      "AUDIO": 2018,
      "Ġabs": 2019,
      "Ġpret": 2020,
      "claim": 2021,
      "Ġgrie": 2022,
      "CLAUDIO": 2023,
      "Ġchange": 2024,
      "MIONE": 2025,
      "ĠNorfolk": 2026,
      "CLIFFORD": 2027,
      "Ġsuffer": 2028,
      "Ġdeliver": 2029,
      "HERMIONE": 2030,
      "DA": 2031,
      "EDWARD": 2032,
      "LORD": 2033,
      "Most": 2034,
      "cher": 2035,
      "kes": 2036,
      "ses": 2037,
      "ufid": 2038,
      "ĠTh": 2039,
      "Ġsk": 2040,
      "Ġsame": 2041,
      "Ġsick": 2042,
      "Ġsign": 2043,
      "Ġwis": 2044,
      "Ġwall": 2045,
      "ready": 2046,
      "isf": 2047,
      "Ġcast": 2048,
      "irth": 2049,
      "chio": 2050,
      "Ġforb": 2051,
      "Ġforget": 2052,
      "oof": 2053,
      "ries": 2054,
      "Ġreg": 2055,
      "urp": 2056,
      "east": 2057,
      "Ġven": 2058,
      "Ġthemselves": 2059,
      "ĠBianca": 2060,
      "Ġworse": 2061,
      "ĠPom": 2062,
      "Ġtook": 2063,
      "Ġpoison": 2064,
      "Ġalong": 2065,
      "Ġrich": 2066,
      "Ġbreast": 2067,
      "ranio": 2068,
      "Ġconsul": 2069,
      "RANDA": 2070,
      "MIRANDA": 2071,
      "twas": 2072,
      "twere": 2073,
      "Ġcheer": 2074,
      "Ġpatience": 2075,
      "Ġmerry": 2076,
      "Ġorder": 2077,
      "etruchio": 2078,
      "ufidius": 2079,
      "HN": 2080,
      "Messenger": 2081,
      "OHN": 2082,
      "SA": 2083,
      "SON": 2084,
      "Servant": 2085,
      "lst": 2086,
      "oin": 2087,
      "ting": 2088,
      "Ġmouth": 2089,
      "Ġwed": 2090,
      "Ġbad": 2091,
      "Ġbook": 2092,
      "Ġfour": 2093,
      "Ġdu": 2094,
      "ĠIf": 2095,
      "Ġgave": 2096,
      "chm": 2097,
      "Ġissue": 2098,
      "ash": 2099,
      "Ġliber": 2100,
      "vern": 2101,
      "Ġself": 2102,
      "ions": 2103,
      "rows": 2104,
      "ally": 2105,
      "Ġoffice": 2106,
      "Ġalready": 2107,
      "Being": 2108,
      "Ġmove": 2109,
      "Ġvirtue": 2110,
      "Ġgiven": 2111,
      "Ġbattle": 2112,
      "ĠHereford": 2113,
      "Ġmorning": 2114,
      "Ġfurther": 2115,
      "Make": 2116,
      "Since": 2117,
      "mber": 2118,
      "nk": 2119,
      "pes": 2120,
      "rist": 2121,
      "she": 2122,
      "uous": 2123,
      "used": 2124,
      "Ġta": 2125,
      "Ġac": 2126,
      "oun": 2127,
      "Ġwise": 2128,
      "Ġburn": 2129,
      "orge": 2130,
      "Ġfrown": 2131,
      "Ġfeast": 2132,
      "Ġdire": 2133,
      "esh": 2134,
      "Ġlad": 2135,
      "Ġpay": 2136,
      "anus": 2137,
      "Ġgro": 2138,
      "ats": 2139,
      "Ġred": 2140,
      "Ġsoft": 2141,
      "each": 2142,
      "Ġsucc": 2143,
      "icer": 2144,
      "Ġblack": 2145,
      "Ġgoes": 2146,
      "Ġsworn": 2147,
      "ĠSignior": 2148,
      "elcome": 2149,
      "Ġprop": 2150,
      "Ġsons": 2151,
      "Ġfoe": 2152,
      "Ġext": 2153,
      "ĠTower": 2154,
      "Before": 2155,
      "Ġtrou": 2156,
      "Ġbegg": 2157,
      "Ġbegin": 2158,
      "Ġconsent": 2159,
      "dden": 2160,
      "Ġsoldiers": 2161,
      "Ġrequest": 2162,
      "ĠLucentio": 2163,
      "Ġbetween": 2164,
      "Ġquarrel": 2165,
      "Ġsatisf": 2166,
      "chmond": 2167,
      "AS": 2168,
      "Call": 2169,
      "IR": 2170,
      "Must": 2171,
      "NT": 2172,
      "Re": 2173,
      "Sw": 2174,
      "Such": 2175,
      "gare": 2176,
      "ires": 2177,
      "ures": 2178,
      "ung": 2179,
      "uff": 2180,
      "ĠFor": 2181,
      "hem": 2182,
      "Ġservant": 2183,
      "Ġbar": 2184,
      "Ġdro": 2185,
      "Ġdark": 2186,
      "Ġcr": 2187,
      "Ġcase": 2188,
      "Ġthri": 2189,
      "aris": 2190,
      "ots": 2191,
      "stand": 2192,
      "owers": 2193,
      "irm": 2194,
      "Ġloves": 2195,
      "ĠCh": 2196,
      "ends": 2197,
      "Ġbless": 2198,
      "empt": 2199,
      "Ġthence": 2200,
      "Ġworth": 2201,
      "ĠAufidius": 2202,
      "CATES": 2203,
      "Ġexp": 2204,
      "awd": 2205,
      "Ġpresence": 2206,
      "Ġpriv": 2207,
      "Unless": 2208,
      "Alas": 2209,
      "Ġwounds": 2210,
      "Ġdangerous": 2211,
      "Because": 2212,
      "garet": 2213,
      "CATESBY": 2214,
      "LY": 2215,
      "oll": 2216,
      "that": 2217,
      "Ġsigh": 2218,
      "Ġble": 2219,
      "ona": 2220,
      "onour": 2221,
      "Ġhot": 2222,
      "Ġgot": 2223,
      "Ġinter": 2224,
      "Ġund": 2225,
      "Ġev": 2226,
      "Ġsum": 2227,
      "Ġneither": 2228,
      "Ġvict": 2229,
      "emn": 2230,
      "ĠLond": 2231,
      "ĠSir": 2232,
      "ĠVols": 2233,
      "cient": 2234,
      "Ġwars": 2235,
      "Ġflatter": 2236,
      "Ġmighty": 2237,
      "Ġrespect": 2238,
      "Ġdread": 2239,
      "Ġbride": 2240,
      "Ġbrief": 2241,
      "Ġthrone": 2242,
      "Ġvoice": 2243,
      "Ġemb": 2244,
      "aptist": 2245,
      "Ġdeny": 2246,
      "Ġspoke": 2247,
      "Ġwater": 2248,
      "Ġvisit": 2249,
      "ĠLondon": 2250,
      "Both": 2251,
      "BIAN": 2252,
      "JOHN": 2253,
      "Lest": 2254,
      "Rome": 2255,
      "REY": 2256,
      "Yes": 2257,
      "eorge": 2258,
      "ip": 2259,
      "iant": 2260,
      "mand": 2261,
      "ught": 2262,
      "Ġest": 2263,
      "Ġmal": 2264,
      "Ġmortal": 2265,
      "Ġbow": 2266,
      "Ġbab": 2267,
      "Ġfra": 2268,
      "ern": 2269,
      "Ġhur": 2270,
      "Ġtown": 2271,
      "Ġoften": 2272,
      "Ġhaving": 2273,
      "right": 2274,
      "ided": 2275,
      "Ġsudden": 2276,
      "rum": 2277,
      "Ġancient": 2278,
      "Ġspeech": 2279,
      "Ġvow": 2280,
      "ĠGeorge": 2281,
      "Ġloved": 2282,
      "Ġkings": 2283,
      "ĠBaptist": 2284,
      "Ġworship": 2285,
      "LIA": 2286,
      "ĠParis": 2287,
      "Ġsafe": 2288,
      "ired": 2289,
      "ainted": 2290,
      "BAL": 2291,
      "ĠMargaret": 2292,
      "Ġprincely": 2293,
      "BRA": 2294,
      "Ġchamber": 2295,
      "Ġseems": 2296,
      "bey": 2297,
      "Ġbuy": 2298,
      "Ġdeeds": 2299,
      "Whom": 2300,
      "VERS": 2301,
      "ĠRichmond": 2302,
      "Ġbitter": 2303,
      "BIANCA": 2304,
      "BOW": 2305,
      "Welcome": 2306,
      "king": 2307,
      "ls": 2308,
      "lish": 2309,
      "mb": 2310,
      "rt": 2311,
      "sp": 2312,
      "ura": 2313,
      "ĠThou": 2314,
      "ĠThis": 2315,
      "Ġfres": 2316,
      "Ġfetch": 2317,
      "Ġcol": 2318,
      "Ġcross": 2319,
      "Ġcoward": 2320,
      "essed": 2321,
      "Ġlim": 2322,
      "Ġpen": 2323,
      "otion": 2324,
      "ated": 2325,
      "urch": 2326,
      "Ġknock": 2327,
      "antage": 2328,
      "oney": 2329,
      "Ġprot": 2330,
      "ĠGAU": 2331,
      "ĠLady": 2332,
      "ĠSaint": 2333,
      "ĠServant": 2334,
      "Ġkingdom": 2335,
      "ĠPl": 2336,
      "Ġsac": 2337,
      "ELBOW": 2338,
      "Ġheads": 2339,
      "Ġscorn": 2340,
      "Ġrage": 2341,
      "Ġappear": 2342,
      "Ġlead": 2343,
      "Ġwitness": 2344,
      "RIVERS": 2345,
      "Ġpatient": 2346,
      "Ġpromise": 2347,
      "Ġlament": 2348,
      "Ġvaliant": 2349,
      "ĠIsab": 2350,
      "Speak": 2351,
      "Ġsuccess": 2352,
      "ĠBaptista": 2353,
      "ĠGAUNT": 2354,
      "Bes": 2355,
      "Ere": 2356,
      "GUE": 2357,
      "Hold": 2358,
      "TY": 2359,
      "cy": 2360,
      "coun": 2361,
      "nown": 2362,
      "sper": 2363,
      "will": 2364,
      "xford": 2365,
      "ĠKING": 2366,
      "Ġign": 2367,
      "Ġaction": 2368,
      "Ġbro": 2369,
      "Ġbawd": 2370,
      "ities": 2371,
      "Ġcle": 2372,
      "Ġcreat": 2373,
      "Ġcap": 2374,
      "Ġlack": 2375,
      "Ġthrow": 2376,
      "Ġow": 2377,
      "Ġopp": 2378,
      "Ġgall": 2379,
      "Ġforward": 2380,
      "Ġeat": 2381,
      "Ġkins": 2382,
      "Their": 2383,
      "iff": 2384,
      "Ġang": 2385,
      "Ġviol": 2386,
      "antag": 2387,
      "Ġprin": 2388,
      "Ġprithee": 2389,
      "ĠMy": 2390,
      "Ġwash": 2391,
      "ortens": 2392,
      "aken": 2393,
      "ĠPetruchio": 2394,
      "Ġoffer": 2395,
      "Ġleast": 2396,
      "Ġslave": 2397,
      "Ġflesh": 2398,
      "ĠTranio": 2399,
      "Ġprepare": 2400,
      "Ġprayers": 2401,
      "then": 2402,
      "Ġappro": 2403,
      "TAGUE": 2404,
      "Ġtriump": 2405,
      "Ġmoon": 2406,
      "Ġcompl": 2407,
      "itted": 2408,
      "Ġtribunes": 2409,
      "Ġdrink": 2410,
      "ĠChrist": 2411,
      "Romeo": 2412,
      "ortensio": 2413,
      "Yea": 2414,
      "bit": 2415,
      "but": 2416,
      "ees": 2417,
      "joy": 2418,
      "ler": 2419,
      "oor": 2420,
      "ohem": 2421,
      "vest": 2422,
      "Ġid": 2423,
      "Ġsur": 2424,
      "Ġmid": 2425,
      "ines": 2426,
      "Ġfie": 2427,
      "Ġdest": 2428,
      "Ġnay": 2429,
      "Ġthither": 2430,
      "Ġhide": 2431,
      "athar": 2432,
      "Ġbeast": 2433,
      "ley": 2434,
      "Ġreb": 2435,
      "raw": 2436,
      "als": 2437,
      "alth": 2438,
      "cks": 2439,
      "thumber": 2440,
      "host": 2441,
      "asters": 2442,
      "feit": 2443,
      "aked": 2444,
      "pey": 2445,
      "Ġalmost": 2446,
      "ully": 2447,
      "Ġscar": 2448,
      "Ġsmall": 2449,
      "Ġpresently": 2450,
      "Ġfaults": 2451,
      "Ġdepart": 2452,
      "Ġsecret": 2453,
      "Ġsubjects": 2454,
      "Ġdefend": 2455,
      "Ġpossess": 2456,
      "atharina": 2457,
      "thumberland": 2458,
      "Con": 2459,
      "DI": 2460,
      "GI": 2461,
      "IEL": 2462,
      "Pl": 2463,
      "VIR": 2464,
      "Whi": 2465,
      "aul": 2466,
      "hind": 2467,
      "ying": 2468,
      "Ġtear": 2469,
      "Ġwert": 2470,
      "rey": 2471,
      "Ġben": 2472,
      "Ġbase": 2473,
      "Ġbirth": 2474,
      "Ġfill": 2475,
      "Ġfond": 2476,
      "Ġlab": 2477,
      "arl": 2478,
      "Ġpain": 2479,
      "inger": 2480,
      "Ġbec": 2481,
      "Ġform": 2482,
      "Ġeas": 2483,
      "Ġstru": 2484,
      "Ġliving": 2485,
      "rue": 2486,
      "though": 2487,
      "Ġgoodly": 2488,
      "Ġwhence": 2489,
      "ĠGREY": 2490,
      "Ġusurp": 2491,
      "cience": 2492,
      "Ġtrump": 2493,
      "Ġhearing": 2494,
      "Ġslaughter": 2495,
      "Ġperform": 2496,
      "Ġwrit": 2497,
      "perate": 2498,
      "ledge": 2499,
      "Stay": 2500,
      "Stand": 2501,
      "Ġchance": 2502,
      "PERDI": 2503,
      "Ġvirtuous": 2504,
      "Ġquickly": 2505,
      "MONTAGUE": 2506,
      "Ġdamn": 2507,
      "ural": 2508,
      "ohemia": 2509,
      "GILIA": 2510,
      "VIRGILIA": 2511,
      "PERDITA": 2512,
      "Ab": 2513,
      "Doth": 2514,
      "Peace": 2515,
      "SET": 2516,
      "SLY": 2517,
      "ding": 2518,
      "eem": 2519,
      "gg": 2520,
      "iest": 2521,
      "over": 2522,
      "oss": 2523,
      "ror": 2524,
      "your": 2525,
      "ze": 2526,
      "Ġut": 2527,
      "Ġtor": 2528,
      "Ġay": 2529,
      "Ġmatch": 2530,
      "Ġmild": 2531,
      "Ġwild": 2532,
      "read": 2533,
      "isure": 2534,
      "Ġfier": 2535,
      "ony": 2536,
      "Ġca": 2537,
      "Ġcertain": 2538,
      "arn": 2539,
      "Ġpu": 2540,
      "Ġpit": 2541,
      "ingly": 2542,
      "sem": 2543,
      "Ġinj": 2544,
      "Ġins": 2545,
      "Ġinno": 2546,
      "eds": 2547,
      "edant": 2548,
      "Ġur": 2549,
      "Ġshad": 2550,
      "Think": 2551,
      "Ġknee": 2552,
      "Ġkneel": 2553,
      "astard": 2554,
      "ustom": 2555,
      "Ġblows": 2556,
      "ĠSt": 2557,
      "ĠOxford": 2558,
      "Ġquiet": 2559,
      "Ġproceed": 2560,
      "ĠPaul": 2561,
      "Ġhadst": 2562,
      "Ġoffence": 2563,
      "Ġadm": 2564,
      "Ġpleas": 2565,
      "force": 2566,
      "Ġaffection": 2567,
      "Ġslew": 2568,
      "IANA": 2569,
      "Ġlawful": 2570,
      "Ġglad": 2571,
      "bling": 2572,
      "Ġweeping": 2573,
      "MARIANA": 2574,
      "Ġsoldier": 2575,
      "Ġawhile": 2576,
      "Ġdeserved": 2577,
      "Ġexecution": 2578,
      "ĠCoriolanus": 2579,
      "Ġguilty": 2580,
      "Ġpretty": 2581,
      "ĠPompey": 2582,
      "Ġangry": 2583,
      "Fa": 2584,
      "Mar": 2585,
      "Master": 2586,
      "PAR": 2587,
      "RA": 2588,
      "VINCENTIO": 2589,
      "awn": 2590,
      "dge": 2591,
      "fully": 2592,
      "gue": 2593,
      "ked": 2594,
      "med": 2595,
      "ual": 2596,
      "vol": 2597,
      "zen": 2598,
      "Ġap": 2599,
      "Ġshi": 2600,
      "Ġsho": 2601,
      "Ġmed": 2602,
      "Ġmod": 2603,
      "Ġwalk": 2604,
      "Ġfam": 2605,
      "Ġfled": 2606,
      "eness": 2607,
      "Ġyear": 2608,
      "Ġob": 2609,
      "Ġocc": 2610,
      "Ġhap": 2611,
      "Ġmeasure": 2612,
      "Ġforsw": 2613,
      "adua": 2614,
      "Ġreign": 2615,
      "Ġdoom": 2616,
      "ames": 2617,
      "Ġnob": 2618,
      "rupt": 2619,
      "Ġourselves": 2620,
      "Ġfavour": 2621,
      "Ġneck": 2622,
      "Ġshows": 2623,
      "ended": 2624,
      "Ġblow": 2625,
      "Ġgovern": 2626,
      "Ġwouldst": 2627,
      "Ġletters": 2628,
      "Ġunc": 2629,
      "Ġunk": 2630,
      "Ġworst": 2631,
      "Ġspeaks": 2632,
      "Ġmarch": 2633,
      "ighb": 2634,
      "ĠKatharina": 2635,
      "Ġgreater": 2636,
      "Ġleisure": 2637,
      "osition": 2638,
      "Ġtreason": 2639,
      "ĠEnglish": 2640,
      "Ġbanishment": 2641,
      "Ġsense": 2642,
      "remio": 2643,
      "Ġcondemn": 2644,
      "ointed": 2645,
      "Ġdishonour": 2646,
      "Ġclouds": 2647,
      "Ġbreathe": 2648,
      "Ġforbid": 2649,
      "Ġliberty": 2650,
      "Ġladies": 2651,
      "Ġtrouble": 2652,
      "rumio": 2653,
      "ĠIsabel": 2654,
      "counter": 2655,
      "antagen": 2656,
      "PARIS": 2657,
      ":'": 2658,
      "Int": 2659,
      "Out": 2660,
      "Too": 2661,
      "While": 2662,
      "aves": 2663,
      "acle": 2664,
      "dle": 2665,
      "house": 2666,
      "rim": 2667,
      "rous": 2668,
      "ĠX": 2669,
      "Ġsort": 2670,
      "Ġmorrow": 2671,
      "Ġwon": 2672,
      "Ġdry": 2673,
      "Ġcru": 2674,
      "Ġlan": 2675,
      "Ġlist": 2676,
      "Ġlaid": 2677,
      "aring": 2678,
      "Ġobey": 2679,
      "Ġheld": 2680,
      "vel": 2681,
      "ster": 2682,
      "ators": 2683,
      "Ġbehind": 2684,
      "set": 2685,
      "Ġnote": 2686,
      "Ġstor": 2687,
      "ider": 2688,
      "Ġref": 2689,
      "Ġlived": 2690,
      "urs": 2691,
      "Ġaside": 2692,
      "Ġdog": 2693,
      "Ġnoise": 2694,
      "Ġseat": 2695,
      "iles": 2696,
      "Ġvain": 2697,
      "ĠMerc": 2698,
      "ĠBohemia": 2699,
      "Ġletter": 2700,
      "Ġjoin": 2701,
      "ounds": 2702,
      "Ġprosper": 2703,
      "Ġrough": 2704,
      "Ġabove": 2705,
      "ize": 2706,
      "Ġremain": 2707,
      "Ġlonger": 2708,
      "Ġwomb": 2709,
      "Ġneeds": 2710,
      "Ġchoose": 2711,
      "Ġchurch": 2712,
      "Ġprisoner": 2713,
      "Ġsecond": 2714,
      "Ġtemp": 2715,
      "Ġgolden": 2716,
      "undred": 2717,
      "Ġdispatch": 2718,
      "Ġpiece": 2719,
      "Ġfresh": 2720,
      "Ġignor": 2721,
      "Ġbecause": 2722,
      "antagenet": 2723,
      "!--": 2724,
      "Am": 2725,
      "De": 2726,
      "DOR": 2727,
      "EW": 2728,
      "En": 2729,
      "Hark": 2730,
      "LAR": 2731,
      "Pr": 2732,
      "Su": 2733,
      "TIUS": 2734,
      "bb": 2735,
      "ban": 2736,
      "cal": 2737,
      "ffect": 2738,
      "him": 2739,
      "iled": 2740,
      "ny": 2741,
      "ts": 2742,
      "under": 2743,
      "ulet": 2744,
      "ĠNow": 2745,
      "Ġtent": 2746,
      "Ġsch": 2747,
      "Ġsus": 2748,
      "Ġsaint": 2749,
      "Ġmut": 2750,
      "inius": 2751,
      "Ġbig": 2752,
      "Ġbroke": 2753,
      "Ġbones": 2754,
      "Ġfat": 2755,
      "Ġfine": 2756,
      "Ġfive": 2757,
      "erle": 2758,
      "itors": 2759,
      "Ġdrown": 2760,
      "Ġcitizens": 2761,
      "Ġlen": 2762,
      "Ġlow": 2763,
      "Ġlust": 2764,
      "Ġlau": 2765,
      "Ġthreat": 2766,
      "Ġhundred": 2767,
      "Ġobed": 2768,
      "Ġpet": 2769,
      "vey": 2770,
      "ang": 2771,
      "Ġoft": 2772,
      "Ġbend": 2773,
      "Ġbell": 2774,
      "Ġind": 2775,
      "ceit": 2776,
      "lease": 2777,
      "ety": 2778,
      "Ġeffect": 2779,
      "Ġyourselves": 2780,
      "Ġstood": 2781,
      "Ġstain": 2782,
      "Ġsteel": 2783,
      "Ġsteal": 2784,
      "ords": 2785,
      "asion": 2786,
      "Ġrevere": 2787,
      "Ġsole": 2788,
      "ARIEL": 2789,
      "ease": 2790,
      "Ġknees": 2791,
      "ular": 2792,
      "icious": 2793,
      "Ġconqu": 2794,
      "ieu": 2795,
      "Ġblessed": 2796,
      "ĠGaunt": 2797,
      "ĠGremio": 2798,
      "Ġshed": 2799,
      "ĠLet": 2800,
      "ĠLEW": 2801,
      "Ġswift": 2802,
      "ĠHortensio": 2803,
      "Ġgrand": 2804,
      "Ġproclaim": 2805,
      "ĠPr": 2806,
      "ĠPadua": 2807,
      "Ġsaf": 2808,
      "ume": 2809,
      "ĠWatch": 2810,
      "istress": 2811,
      "Ġexc": 2812,
      "Ġdesperate": 2813,
      "Ġslander": 2814,
      "Ġprecious": 2815,
      "Ġbears": 2816,
      "Ġappare": 2817,
      "Ġconscience": 2818,
      "Ġentertain": 2819,
      "ontent": 2820,
      "Ġpride": 2821,
      "Sirrah": 2822,
      "uthor": 2823,
      "Ġglory": 2824,
      "Ġdouble": 2825,
      "atesby": 2826,
      "Ġwoes": 2827,
      "posed": 2828,
      "Ġlands": 2829,
      "Ġsentence": 2830,
      "ĠNorthumberland": 2831,
      "Ġdrunk": 2832,
      "Ġtowards": 2833,
      "ĠCapulet": 2834,
      "Unto": 2835,
      "Ġforgot": 2836,
      "Ġwisdom": 2837,
      "Ġvenge": 2838,
      "Sweet": 2839,
      "Ġvictory": 2840,
      "Ġkinsman": 2841,
      "ĠXI": 2842,
      "LARTIUS": 2843,
      "ĠLEWIS": 2844,
      "ĠWatchman": 2845,
      ";'": 2846,
      "Bel": 2847,
      "Could": 2848,
      "Hear": 2849,
      "MP": 2850,
      "Me": 2851,
      "Pardon": 2852,
      "Pedant": 2853,
      "RTIS": 2854,
      "bray": 2855,
      "den": 2856,
      "gment": 2857,
      "hn": 2858,
      "iance": 2859,
      "ohn": 2860,
      "pir": 2861,
      "ude": 2862,
      "vail": 2863,
      "which": 2864,
      "head": 2865,
      "Ġauthor": 2866,
      "Ġsour": 2867,
      "Ġmount": 2868,
      "Ġmethinks": 2869,
      "Ġmoney": 2870,
      "Ġmasters": 2871,
      "rent": 2872,
      "rence": 2873,
      "Ġfe": 2874,
      "Ġfru": 2875,
      "Ġfought": 2876,
      "Ġfew": 2877,
      "Ġdied": 2878,
      "Ġdeter": 2879,
      "Ġcapt": 2880,
      "Ġpun": 2881,
      "owbray": 2882,
      "Ġhair": 2883,
      "irl": 2884,
      "Ġeld": 2885,
      "Ġstud": 2886,
      "estion": 2887,
      "Ġdoing": 2888,
      "iful": 2889,
      "Ġseal": 2890,
      "ility": 2891,
      "ĠCa": 2892,
      "cted": 2893,
      "ETER": 2894,
      "Ġmanner": 2895,
      "ĠEarl": 2896,
      "ĠGo": 2897,
      "ĠGrumio": 2898,
      "Ġknowledge": 2899,
      "umerle": 2900,
      "Ġenjoy": 2901,
      "Ġran": 2902,
      "ĠAnt": 2903,
      "Within": 2904,
      "Ġalive": 2905,
      "Ġabro": 2906,
      "ways": 2907,
      "Ġhonours": 2908,
      "Ġwarm": 2909,
      "ations": 2910,
      "Ġdeadly": 2911,
      "Ġkept": 2912,
      "Ġcontr": 2913,
      "Ġcontin": 2914,
      "Ġarmy": 2915,
      "Ġlordship": 2916,
      "Ġguest": 2917,
      "Ġguess": 2918,
      "CURTIS": 2919,
      "Ġpromised": 2920,
      "comes": 2921,
      "eeper": 2922,
      "Ġwretched": 2923,
      "Ġdespair": 2924,
      "Ġcheeks": 2925,
      "SAMP": 2926,
      "Ġlabour": 2927,
      "Ġstruck": 2928,
      "Faith": 2929,
      "Ġdeterm": 2930,
      "SAMPSON": 2931,
      "'re": 2932,
      ":--": 2933,
      "BU": 2934,
      "Br": 2935,
      "Citizens": 2936,
      "Dis": 2937,
      "EX": 2938,
      "Either": 2939,
      "IGON": 2940,
      "bury": 2941,
      "ey": 2942,
      "good": 2943,
      "mit": 2944,
      "take": 2945,
      "Ġtry": 2946,
      "Ġteach": 2947,
      "Ġaid": 2948,
      "ounce": 2949,
      "Ġsim": 2950,
      "reed": 2951,
      "Ġbastard": 2952,
      "orious": 2953,
      "llow": 2954,
      "ited": 2955,
      "Ġdance": 2956,
      "Ġcorn": 2957,
      "Ġcred": 2958,
      "Ġcried": 2959,
      "Ġpal": 2960,
      "Ġhel": 2961,
      "Ġhealth": 2962,
      "stant": 2963,
      "utio": 2964,
      "ourn": 2965,
      "Ġliest": 2966,
      "Ġdeg": 2967,
      "Ġdemand": 2968,
      "Ġshake": 2969,
      "eaven": 2970,
      "ament": 2971,
      "Ġsever": 2972,
      "Ġherself": 2973,
      "Ġspent": 2974,
      "ĠMaster": 2975,
      "ĠMowbray": 2976,
      "Ġwhether": 2977,
      "Ġamong": 2978,
      "Ġshepherd": 2979,
      "othing": 2980,
      "ppy": 2981,
      "Ġunp": 2982,
      "Ġunw": 2983,
      "ĠHow": 2984,
      "Ġquoth": 2985,
      "Ġprov": 2986,
      "umb": 2987,
      "Ġplant": 2988,
      "ĠWill": 2989,
      "ĠWhy": 2990,
      "osed": 2991,
      "Ġencounter": 2992,
      "Ġrot": 2993,
      "Ġofficer": 2994,
      "Ġbrothers": 2995,
      "Ġearly": 2996,
      "Ġhonourable": 2997,
      "Ġflowers": 2998,
      "LEY": 2999,
      "Ġcalls": 3000,
      "Ġwhite": 3001,
      "Ġremed": 3002,
      "Ġmoved": 3003,
      "Ġaccount": 3004,
      "ewis": 3005,
      "Ġkindred": 3006,
      "Ġpriest": 3007,
      "Ġguard": 3008,
      "Ġcharity": 3009,
      "Ġunderstand": 3010,
      "Ġfoolish": 3011,
      "Ġhumble": 3012,
      "Ġcounter": 3013,
      "Ġdreams": 3014,
      "Ġgreet": 3015,
      "ANTIGON": 3016,
      "Ġvalour": 3017,
      "Ġjudge": 3018,
      "Ġwretch": 3019,
      "Ġbeggar": 3020,
      "Ġsummer": 3021,
      "Ġtriumph": 3022,
      "Ġcruel": 3023,
      "BURY": 3024,
      "ANTIGONUS": 3025,
      "Bet": 3026,
      "Fear": 3027,
      "Lo": 3028,
      "Mine": 3029,
      "Made": 3030,
      "TCLIFF": 3031,
      "True": 3032,
      "fall": 3033,
      "mon": 3034,
      "rison": 3035,
      "ĠAnd": 3036,
      "heart": 3037,
      "ining": 3038,
      "Ġwail": 3039,
      "orthy": 3040,
      "Ġfart": 3041,
      "Ġfaint": 3042,
      "ites": 3043,
      "Ġdin": 3044,
      "Ġdwell": 3045,
      "Ġyea": 3046,
      "Ġthro": 3047,
      "Ġhung": 3048,
      "Ġpack": 3049,
      "Ġga": 3050,
      "Ġgent": 3051,
      "leep": 3052,
      "Ġforce": 3053,
      "Ġweary": 3054,
      "Ġstone": 3055,
      "Ġstars": 3056,
      "ask": 3057,
      "roy": 3058,
      "Ġbutcher": 3059,
      "ify": 3060,
      "Ġseven": 3061,
      "Ġanon": 3062,
      "Ġours": 3063,
      "ĠCom": 3064,
      "Ġneighb": 3065,
      "ĠRoman": 3066,
      "Ġvie": 3067,
      "ief": 3068,
      "Ġblame": 3069,
      "Ġgoing": 3070,
      "ĠLewis": 3071,
      "Ġthereof": 3072,
      "Ġunf": 3073,
      "Ġuns": 3074,
      "Ġenvy": 3075,
      "Ġrise": 3076,
      "Ġthinks": 3077,
      "Ġrid": 3078,
      "Ġparty": 3079,
      "Ġadd": 3080,
      "Ġothers": 3081,
      "ĠJohn": 3082,
      "ians": 3083,
      "Ġkindness": 3084,
      "Ġchast": 3085,
      "Ġbids": 3086,
      "Ġbright": 3087,
      "Ġglass": 3088,
      "Ġmiser": 3089,
      "Ġcrave": 3090,
      "Twas": 3091,
      "Ġwinter": 3092,
      "Ġmonth": 3093,
      "Ġminister": 3094,
      "Ġwalls": 3095,
      "Ġextrem": 3096,
      "Ġsatisfied": 3097,
      "Ġprivate": 3098,
      "ĠVolsces": 3099,
      "Ġidle": 3100,
      "Ġscarce": 3101,
      "Ġbenef": 3102,
      "RATCLIFF": 3103,
      "Ġlaugh": 3104,
      "Ġvengeance": 3105,
      "Ġabroad": 3106,
      "Ġview": 3107,
      "After": 3108,
      "Bid": 3109,
      "BIS": 3110,
      "Fie": 3111,
      "Gentle": 3112,
      "HOP": 3113,
      "Ne": 3114,
      "Never": 3115,
      "Signior": 3116,
      "Under": 3117,
      "aff": 3118,
      "gra": 3119,
      "ners": 3120,
      "ope": 3121,
      "shall": 3122,
      "ued": 3123,
      "vious": 3124,
      "whe": 3125,
      "woman": 3126,
      "Ġver": 3127,
      "incentio": 3128,
      "Ġwre": 3129,
      "Ġwench": 3130,
      "rees": 3131,
      "have": 3132,
      "orous": 3133,
      "Ġfirm": 3134,
      "Ġcir": 3135,
      "Ġcorse": 3136,
      "enes": 3137,
      "Ġlest": 3138,
      "Ġhol": 3139,
      "vell": 3140,
      "ott": 3141,
      "omas": 3142,
      "att": 3143,
      "ating": 3144,
      "Ġincl": 3145,
      "cell": 3146,
      "utland": 3147,
      "Ġformer": 3148,
      "Ġease": 3149,
      "riar": 3150,
      "ident": 3151,
      "Ġrel": 3152,
      "Ġreceived": 3153,
      "Ġdeal": 3154,
      "amp": 3155,
      "Ġsport": 3156,
      "Ġfaire": 3157,
      "ANLEY": 3158,
      "ĠRutland": 3159,
      "Ġvile": 3160,
      "Ġshrew": 3161,
      "antua": 3162,
      "ĠMantua": 3163,
      "Ġconcl": 3164,
      "Ġconvey": 3165,
      "Ġgod": 3166,
      "allow": 3167,
      "ĠBarn": 3168,
      "Ġarri": 3169,
      "Ġunb": 3170,
      "ĠHer": 3171,
      "ĠVincentio": 3172,
      "Ġmayst": 3173,
      "eless": 3174,
      "Ġquite": 3175,
      "Ġprovost": 3176,
      "IST": 3177,
      "Ġtruly": 3178,
      "Ġdism": 3179,
      "Off": 3180,
      "Ġfoes": 3181,
      "Ġroot": 3182,
      "Ġwherefore": 3183,
      "Ġflower": 3184,
      "Ġimag": 3185,
      "Ġtrial": 3186,
      "ailor": 3187,
      "Ġsmo": 3188,
      "Ġtrem": 3189,
      "Ġfellows": 3190,
      "rench": 3191,
      "Ġchanged": 3192,
      "Ġcover": 3193,
      "Ġhumour": 3194,
      "Ġboot": 3195,
      "Ġswords": 3196,
      "Ġdeputy": 3197,
      "Ġcondition": 3198,
      "Ġjudgment": 3199,
      "change": 3200,
      "Ġtyrant": 3201,
      "Ġacqu": 3202,
      "Ġevil": 3203,
      "BALT": 3204,
      "TYBALT": 3205,
      "Whilst": 3206,
      "Ġeasy": 3207,
      "ĠMercutio": 3208,
      "Ġschool": 3209,
      "Ġexcuse": 3210,
      "Ġfruit": 3211,
      "BISHOP": 3212,
      "'?": 3213,
      "AL": 3214,
      "Bl": 3215,
      "Des": 3216,
      "Ex": 3217,
      "KEN": 3218,
      "Methinks": 3219,
      "Put": 3220,
      "Tut": 3221,
      "ault": 3222,
      "after": 3223,
      "con": 3224,
      "ek": 3225,
      "ead": 3226,
      "ered": 3227,
      "his": 3228,
      "oot": 3229,
      "pin": 3230,
      "roth": 3231,
      "rate": 3232,
      "shi": 3233,
      "ta": 3234,
      "vish": 3235,
      "Ġtaken": 3236,
      "Ġwither": 3237,
      "Ġba": 3238,
      "Ġbrow": 3239,
      "Ġbite": 3240,
      "Ġbrows": 3241,
      "Ġfain": 3242,
      "Ġfeed": 3243,
      "erona": 3244,
      "Ġdust": 3245,
      "Ġdull": 3246,
      "enance": 3247,
      "Ġthunder": 3248,
      "Ġpains": 3249,
      "anley": 3250,
      "Ġgown": 3251,
      "Ġgrown": 3252,
      "Ġgift": 3253,
      "Ġghost": 3254,
      "Ġgirl": 3255,
      "Ġbeha": 3256,
      "Ġmeat": 3257,
      "rift": 3258,
      "Ġstab": 3259,
      "Ġstoop": 3260,
      "idings": 3261,
      "ract": 3262,
      "arden": 3263,
      "Ġspe": 3264,
      "Ġspake": 3265,
      "Ġspring": 3266,
      "ilia": 3267,
      "ĠCatesby": 3268,
      "Ġknave": 3269,
      "AND": 3270,
      "Ġvice": 3271,
      "aste": 3272,
      "Ġshore": 3273,
      "Ġproof": 3274,
      "Ġblest": 3275,
      "Ġblind": 3276,
      "ement": 3277,
      "Ġsirrah": 3278,
      "Ġunl": 3279,
      "Ġquestion": 3280,
      "Ġjoint": 3281,
      "cians": 3282,
      "ĠWe": 3283,
      "ĠAl": 3284,
      "ĠAumerle": 3285,
      "Ġhonesty": 3286,
      "ursed": 3287,
      "Ġleaves": 3288,
      "Ġtwice": 3289,
      "aper": 3290,
      "ĠKeeper": 3291,
      "Ġprevent": 3292,
      "OMAS": 3293,
      "there": 3294,
      "ĠMars": 3295,
      "Ġrepent": 3296,
      "Ġtraitors": 3297,
      "twixt": 3298,
      "Ġimport": 3299,
      "Ġwrongs": 3300,
      "Ġburied": 3301,
      "ealous": 3302,
      "place": 3303,
      "Ġreasons": 3304,
      "Alack": 3305,
      "Ġsenate": 3306,
      "Ġgreen": 3307,
      "Ġaffair": 3308,
      "acher": 3309,
      "Ġchoice": 3310,
      "azed": 3311,
      "Ġdivine": 3312,
      "ĠCorioli": 3313,
      "Ġwhilst": 3314,
      "Ġstop": 3315,
      "Ġtyran": 3316,
      "Ġprophe": 3317,
      "Ġembrace": 3318,
      "Ġmalice": 3319,
      "BRAKEN": 3320,
      "ĠPlantagenet": 3321,
      "Ġsacred": 3322,
      "Ġfiery": 3323,
      "Ġinnocent": 3324,
      "ĠPaulina": 3325,
      "Ġleng": 3326,
      "ĠPrince": 3327,
      "Ġsafety": 3328,
      "ĠCominius": 3329,
      "BRAKENBURY": 3330,
      "?'": 3331,
      "Ad": 3332,
      "DER": 3333,
      "DON": 3334,
      "Edward": 3335,
      "GOR": 3336,
      "Hence": 3337,
      "Ind": 3338,
      "MIST": 3339,
      "Once": 3340,
      "Richard": 3341,
      "RESS": 3342,
      "cha": 3343,
      "draw": 3344,
      "eld": 3345,
      "go": 3346,
      "mn": 3347,
      "my": 3348,
      "more": 3349,
      "nat": 3350,
      "op": 3351,
      "oly": 3352,
      "oard": 3353,
      "pet": 3354,
      "port": 3355,
      "poll": 3356,
      "sic": 3357,
      "would": 3358,
      "Ġed": 3359,
      "ĠTo": 3360,
      "Ġavo": 3361,
      "Ġsits": 3362,
      "inous": 3363,
      "Ġwag": 3364,
      "Ġwings": 3365,
      "rehe": 3366,
      "Ġbark": 3367,
      "orry": 3368,
      "Ġfury": 3369,
      "Ġfinger": 3370,
      "erset": 3371,
      "itol": 3372,
      "Ġcustom": 3373,
      "enen": 3374,
      "anch": 3375,
      "omerset": 3376,
      "Ġgross": 3377,
      "Ġgarden": 3378,
      "Ġinform": 3379,
      "edious": 3380,
      "Ġused": 3381,
      "Ġweeds": 3382,
      "Ġele": 3383,
      "Ġeag": 3384,
      "Ġstones": 3385,
      "Ġdec": 3386,
      "Ġdoor": 3387,
      "Ġnose": 3388,
      "Ġallow": 3389,
      "think": 3390,
      "Ġanger": 3391,
      "ardine": 3392,
      "Ġloath": 3393,
      "Ġloyal": 3394,
      "ellow": 3395,
      "Ġfares": 3396,
      "Ġnecess": 3397,
      "Ġknight": 3398,
      "ctise": 3399,
      "Ġshr": 3400,
      "Ġoracle": 3401,
      "ĠOVER": 3402,
      "Myself": 3403,
      "hysic": 3404,
      "Ġmayor": 3405,
      "elve": 3406,
      "Ġhollow": 3407,
      "Ġsail": 3408,
      "Ġplague": 3409,
      "unning": 3410,
      "Ġround": 3411,
      "Ġfright": 3412,
      "icked": 3413,
      "Without": 3414,
      "Ġalways": 3415,
      "Ġrob": 3416,
      "Ġrock": 3417,
      "Ġwherein": 3418,
      "Ġdesign": 3419,
      "Wherein": 3420,
      "aughters": 3421,
      "Ġadieu": 3422,
      "Ġcommend": 3423,
      "Ġclaim": 3424,
      "Ġprevail": 3425,
      "Ġprayer": 3426,
      "PETER": 3427,
      "Ġplead": 3428,
      "Ġperceive": 3429,
      "Ġtroth": 3430,
      "Ġrude": 3431,
      "Ġtongues": 3432,
      "Ġsubst": 3433,
      "Ġsmile": 3434,
      "Ġimprison": 3435,
      "Ġcares": 3436,
      "GREGOR": 3437,
      "Ġdrawn": 3438,
      "Ġempt": 3439,
      "Ġwanton": 3440,
      "Ġassist": 3441,
      "unts": 3442,
      "Ġtempt": 3443,
      "Ġdeserve": 3444,
      "Ġdelight": 3445,
      "ĠCapitol": 3446,
      "Ġpractise": 3447,
      "Ġcheek": 3448,
      "Ġabsence": 3449,
      "ĠThomas": 3450,
      "Ġdrop": 3451,
      "Ġcreature": 3452,
      "Ġtrumpets": 3453,
      "Ġutter": 3454,
      "Ġlangu": 3455,
      "Ġignorant": 3456,
      "Brother": 3457,
      "Ġrotten": 3458,
      "Ġremedy": 3459,
      "Ġcirc": 3460,
      "ĠBarnardine": 3461,
      "DERBY": 3462,
      "DONE": 3463,
      "Indeed": 3464,
      "MISTRESS": 3465,
      "enenius": 3466,
      "ĠOVERDONE": 3467,
      "GREGORY": 3468,
      "Art": 3469,
      "CH": 3470,
      "Dost": 3471,
      "FORD": 3472,
      "OX": 3473,
      "Poor": 3474,
      "Res": 3475,
      "RICH": 3476,
      "SOM": 3477,
      "Turn": 3478,
      "VAL": 3479,
      "act": 3480,
      "dy": 3481,
      "eous": 3482,
      "mion": 3483,
      "sing": 3484,
      "thi": 3485,
      "what": 3486,
      "yard": 3487,
      "Ġes": 3488,
      "ĠWhere": 3489,
      "Ġtune": 3490,
      "Ġtidings": 3491,
      "Ġtedious": 3492,
      "held": 3493,
      "Ġaim": 3494,
      "Ġaught": 3495,
      "Ġship": 3496,
      "Ġsens": 3497,
      "Ġwent": 3498,
      "Ġwont": 3499,
      "Ġwives": 3500,
      "Ġwicked": 3501,
      "haps": 3502,
      "isa": 3503,
      "ises": 3504,
      "onounce": 3505,
      "Ġdur": 3506,
      "Ġcre": 3507,
      "Ġcell": 3508,
      "Ġcure": 3509,
      "Ġcarry": 3510,
      "Ġcries": 3511,
      "esy": 3512,
      "Ġnumber": 3513,
      "Ġlar": 3514,
      "Ġloud": 3515,
      "Ġthrust": 3516,
      "Ġhit": 3517,
      "Ġhid": 3518,
      "Ġpil": 3519,
      "Ġpair": 3520,
      "othe": 3521,
      "Ġbecomes": 3522,
      "cend": 3523,
      "utes": 3524,
      "iment": 3525,
      "rious": 3526,
      "Ġstar": 3527,
      "Ġstat": 3528,
      "Ġsteed": 3529,
      "ashi": 3530,
      "Ġreceive": 3531,
      "Ġasleep": 3532,
      "Ġdew": 3533,
      "Ġdeceived": 3534,
      "Ġdeposed": 3535,
      "Ġshar": 3536,
      "this": 3537,
      "ards": 3538,
      "hant": 3539,
      "Ġvantage": 3540,
      "ERIA": 3541,
      "ERSET": 3542,
      "ĠMusic": 3543,
      "Ġconj": 3544,
      "ongs": 3545,
      "ĠGrey": 3546,
      "Ġsheep": 3547,
      "Ġtherein": 3548,
      "ĠSic": 3549,
      "ĠSomerset": 3550,
      "ĠVerona": 3551,
      "Ġjealous": 3552,
      "Ġshouldst": 3553,
      "Ġproper": 3554,
      "Ġras": 3555,
      "Ġoutward": 3556,
      "Ġwhole": 3557,
      "Ġoffend": 3558,
      "ĠYour": 3559,
      "Ġalas": 3560,
      "Ġheav": 3561,
      "Ġearn": 3562,
      "eeth": 3563,
      "Ġmeaning": 3564,
      "aced": 3565,
      "Ġchief": 3566,
      "Ġbegins": 3567,
      "ĠJove": 3568,
      "Ġruin": 3569,
      "loved": 3570,
      "ission": 3571,
      "Ġresign": 3572,
      "Ġfollows": 3573,
      "Ġtread": 3574,
      "Ġtreacher": 3575,
      "ethought": 3576,
      "Ġbanished": 3577,
      "Ġpassing": 3578,
      "Ġwoful": 3579,
      "Ġdevise": 3580,
      "Ġfollowers": 3581,
      "Ġfools": 3582,
      "Ġmaids": 3583,
      "Show": 3584,
      "Ġadvise": 3585,
      "Ġgives": 3586,
      "itting": 3587,
      "Ġrememb": 3588,
      "Ġawake": 3589,
      "Ġborne": 3590,
      "Ġsupper": 3591,
      "Ġlamb": 3592,
      "Ġcondu": 3593,
      "aze": 3594,
      "Ġsilence": 3595,
      "Ġpossible": 3596,
      "Having": 3597,
      "Ġprofess": 3598,
      "Ġdespite": 3599,
      "MOND": 3600,
      "Ġgarments": 3601,
      "Ġcastle": 3602,
      "Ġthrive": 3603,
      "Ġexpress": 3604,
      "Ġundone": 3605,
      "Ġdreadful": 3606,
      "Ġbabe": 3607,
      "Ġprotect": 3608,
      "Besides": 3609,
      "Ġbroken": 3610,
      "Ġviolent": 3611,
      "ĠChristian": 3612,
      "Ġpubl": 3613,
      "Ġoccasion": 3614,
      "Ġnobles": 3615,
      "Into": 3616,
      "ursday": 3617,
      "Ġfatal": 3618,
      "Ġbelly": 3619,
      "Ġauthority": 3620,
      "Ġsimple": 3621,
      "Ġfarther": 3622,
      "Ġthroat": 3623,
      "Ġbenefit": 3624,
      "pinion": 3625,
      "Ġaffairs": 3626,
      "pollo": 3627,
      "OXFORD": 3628,
      "RICHMOND": 3629,
      "SOMERSET": 3630,
      "VALERIA": 3631,
      "mione": 3632,
      "AMIL": 3633,
      "BUS": 3634,
      "Great": 3635,
      "HY": 3636,
      "Hast": 3637,
      "LIUS": 3638,
      "MOP": 3639,
      "MAMIL": 3640,
      "Per": 3641,
      "Tybalt": 3642,
      "Tailor": 3643,
      "Very": 3644,
      "app": 3645,
      "cing": 3646,
      "can": 3647,
      "eg": 3648,
      "fl": 3649,
      "father": 3650,
      "gle": 3651,
      "iond": 3652,
      "oat": 3653,
      "pr": 3654,
      "ron": 3655,
      "son": 3656,
      "ub": 3657,
      "Ġer": 3658,
      "Ġir": 3659,
      "ĠThere": 3660,
      "Ġtort": 3661,
      "Ġtaste": 3662,
      "Ġsan": 3663,
      "Ġsix": 3664,
      "Ġsorry": 3665,
      "Ġwine": 3666,
      "Ġwander": 3667,
      "Ġband": 3668,
      "Ġbond": 3669,
      "erved": 3670,
      "itude": 3671,
      "Ġdet": 3672,
      "Ġdue": 3673,
      "Ġcal": 3674,
      "Ġcam": 3675,
      "Ġcunning": 3676,
      "ene": 3677,
      "enn": 3678,
      "Ġnine": 3679,
      "Ġnames": 3680,
      "Ġlend": 3681,
      "arch": 3682,
      "Ġtop": 3683,
      "Ġpin": 3684,
      "Ġpawn": 3685,
      "Ġpaper": 3686,
      "Ġphysic": 3687,
      "Ġgain": 3688,
      "Ġgage": 3689,
      "Ġbelike": 3690,
      "Ġbeheld": 3691,
      "Ġinfect": 3692,
      "ldom": 3693,
      "eding": 3694,
      "utation": 3695,
      "Ġweight": 3696,
      "Ġweap": 3697,
      "ills": 3698,
      "Ġequ": 3699,
      "enture": 3700,
      "Ġstore": 3701,
      "Ġstep": 3702,
      "Ġstock": 3703,
      "Ġstuff": 3704,
      "Ġrenown": 3705,
      "rand": 3706,
      "Ġlip": 3707,
      "Ġdeare": 3708,
      "room": 3709,
      "eave": 3710,
      "usion": 3711,
      "iffe": 3712,
      "Ġseas": 3713,
      "Ġsup": 3714,
      "run": 3715,
      "Ġange": 3716,
      "Ġlod": 3717,
      "ello": 3718,
      "Ġspend": 3719,
      "Ġspare": 3720,
      "hop": 3721,
      "Ġvan": 3722,
      "ouses": 3723,
      "Ġshut": 3724,
      "ustice": 3725,
      "ĠMOW": 3726,
      "ĠMenenius": 3727,
      "olix": 3728,
      "Ġsway": 3729,
      "Ġbrook": 3730,
      "Ġkingly": 3731,
      "ĠBona": 3732,
      "Ġunnat": 3733,
      "ĠHarry": 3734,
      "Ġquit": 3735,
      "imely": 3736,
      "Ġenvious": 3737,
      "Ġrash": 3738,
      "Ġdisd": 3739,
      "ABHOR": 3740,
      "Ġroom": 3741,
      "Ġexile": 3742,
      "Ġexcell": 3743,
      "Ġdesert": 3744,
      "Ġgentlewoman": 3745,
      "Ġflight": 3746,
      "Ġtwelve": 3747,
      "Ġparts": 3748,
      "Ġprey": 3749,
      "THOMAS": 3750,
      "Ġperil": 3751,
      "Ġperish": 3752,
      "Ġtrans": 3753,
      "iteous": 3754,
      "ĠFriar": 3755,
      "Ġwhither": 3756,
      "swain": 3757,
      "Ġuntil": 3758,
      "Ġaffect": 3759,
      "Ġlean": 3760,
      "Ġlegs": 3761,
      "orses": 3762,
      "Ġkeeps": 3763,
      "Ġaccus": 3764,
      "STANLEY": 3765,
      "Ġprize": 3766,
      "Ġpursu": 3767,
      "Ġchair": 3768,
      "Ġcountenance": 3769,
      "Ġpleased": 3770,
      "ounty": 3771,
      "Ġhumbly": 3772,
      "Ġcourtesy": 3773,
      "Ġadvantage": 3774,
      "Ġcurst": 3775,
      "ploy": 3776,
      "Ġspirits": 3777,
      "Two": 3778,
      "Ġintend": 3779,
      "Ġdenied": 3780,
      "ancy": 3781,
      "Ġdisposition": 3782,
      "Ġbetwixt": 3783,
      "Ġsilver": 3784,
      "Ġdelay": 3785,
      "Ġresolve": 3786,
      "ĠThursday": 3787,
      "Ġwedding": 3788,
      "Ġsighs": 3789,
      "Ġhurt": 3790,
      "BRAY": 3791,
      "Ġcolour": 3792,
      "Ġclear": 3793,
      "Ġowe": 3794,
      "Ġprepared": 3795,
      "Ġdamned": 3796,
      "Ġshadow": 3797,
      "Ġpleasant": 3798,
      "Ġforsworn": 3799,
      "Ġstorm": 3800,
      "Death": 3801,
      "Ġthreaten": 3802,
      "Ġconquer": 3803,
      "Ġpunish": 3804,
      "ĠCaius": 3805,
      "Ġcontrary": 3806,
      "EXETER": 3807,
      "Ġpalace": 3808,
      "Ġdinner": 3809,
      "Ġneighbour": 3810,
      "Ġmiserable": 3811,
      "Ġspeci": 3812,
      "Ġempty": 3813,
      "ĠMusician": 3814,
      "BUSHY": 3815,
      "MOPSA": 3816,
      "MAMILLIUS": 3817,
      "iondello": 3818,
      "Ġsanct": 3819,
      "ĠMOWBRAY": 3820,
      "olixenes": 3821,
      "ABHORSON": 3822,
      "CY": 3823,
      "Cousin": 3824,
      "Ed": 3825,
      "Know": 3826,
      "None": 3827,
      "Nothing": 3828,
      "Pre": 3829,
      "Ret": 3830,
      "Right": 3831,
      "Rem": 3832,
      "Rep": 3833,
      "Sc": 3834,
      "Sha": 3835,
      "Widow": 3836,
      "bow": 3837,
      "born": 3838,
      "grace": 3839,
      "hor": 3840,
      "hore": 3841,
      "lar": 3842,
      "mity": 3843,
      "oc": 3844,
      "oke": 3845,
      "par": 3846,
      "ping": 3847,
      "pic": 3848,
      "pass": 3849,
      "tune": 3850,
      "urious": 3851,
      "we": 3852,
      "wise": 3853,
      "yond": 3854,
      "ĠWhen": 3855,
      "Ġtut": 3856,
      "Ġtable": 3857,
      "Ġscept": 3858,
      "Ġmiss": 3859,
      "Ġmurderer": 3860,
      "Ġmaking": 3861,
      "Ġmotion": 3862,
      "Ġmourn": 3863,
      "Ġwot": 3864,
      "Ġwood": 3865,
      "Ġwol": 3866,
      "Ġwond": 3867,
      "rease": 3868,
      "Ġbas": 3869,
      "Ġbare": 3870,
      "Ġball": 3871,
      "Ġbud": 3872,
      "ising": 3873,
      "Ġfle": 3874,
      "Ġfro": 3875,
      "Ġfee": 3876,
      "Ġfashi": 3877,
      "erve": 3878,
      "Ġdi": 3879,
      "Ġdign": 3880,
      "Ġdies": 3881,
      "Ġdag": 3882,
      "Ġdaughters": 3883,
      "Ġcens": 3884,
      "Ġcup": 3885,
      "Ġcalm": 3886,
      "ency": 3887,
      "Ġnaked": 3888,
      "Ġyonder": 3889,
      "Ġopinion": 3890,
      "Ġpure": 3891,
      "Ġport": 3892,
      "Ġpainted": 3893,
      "Ġpiteous": 3894,
      "Ġheed": 3895,
      "ote": 3896,
      "ane": 3897,
      "Ġgate": 3898,
      "Ġbew": 3899,
      "Ġbeloved": 3900,
      "sequ": 3901,
      "irg": 3902,
      "Ġmend": 3903,
      "ourish": 3904,
      "Ġweigh": 3905,
      "rib": 3906,
      "Ġstory": 3907,
      "Ġreward": 3908,
      "urance": 3909,
      "Ġdebt": 3910,
      "Ġones": 3911,
      "ARCH": 3912,
      "amed": 3913,
      "Ġseest": 3914,
      "Three": 3915,
      "ruly": 3916,
      "thou": 3917,
      "Ġfail": 3918,
      "ERCY": 3919,
      "que": 3920,
      "Ġgoodness": 3921,
      "Ġpronounce": 3922,
      "Ġcomple": 3923,
      "ĠMessenger": 3924,
      "Ġamb": 3925,
      "Ġamen": 3926,
      "outs": 3927,
      "oler": 3928,
      "Ġhatred": 3929,
      "Ġtheirs": 3930,
      "ĠBiondello": 3931,
      "Ġarg": 3932,
      "igence": 3933,
      "Ġquench": 3934,
      "Ġhopes": 3935,
      "cio": 3936,
      "cian": 3937,
      "Ġseeing": 3938,
      "ĠPro": 3939,
      "ĠPeter": 3940,
      "ĠPisa": 3941,
      "ĠPolixenes": 3942,
      "ĠPERCY": 3943,
      "umble": 3944,
      "Ġplot": 3945,
      "Ġdiss": 3946,
      "Ġexpect": 3947,
      "Ġslow": 3948,
      "Ġado": 3949,
      "THAS": 3950,
      "ĠDid": 3951,
      "Ġperfect": 3952,
      "Ġperpet": 3953,
      "Ġwrath": 3954,
      "Thanks": 3955,
      "lesome": 3956,
      "ĠFl": 3957,
      "Ġremains": 3958,
      "Ġcrowns": 3959,
      "Ġhark": 3960,
      "Ġcourage": 3961,
      "Ġwits": 3962,
      "clock": 3963,
      "Ġaccess": 3964,
      "Ġaccuse": 3965,
      "Ġfolly": 3966,
      "Only": 3967,
      "Ġends": 3968,
      "Ġendure": 3969,
      "Ġneedful": 3970,
      "Still": 3971,
      "Ġbodies": 3972,
      "Ġjoys": 3973,
      "Ġjoyful": 3974,
      "Ġfortunes": 3975,
      "Ġmistake": 3976,
      "Ġnatural": 3977,
      "Ġhappiness": 3978,
      "Ġmisery": 3979,
      "Ġundertake": 3980,
      "Ġchide": 3981,
      "Ġattempt": 3982,
      "Ġadvance": 3983,
      "Ġcurses": 3984,
      "Ġemploy": 3985,
      "Ġassurance": 3986,
      "Ġpersu": 3987,
      "Ġdiscontent": 3988,
      "Ġsenators": 3989,
      "Ġcrack": 3990,
      "Ġintent": 3991,
      "Ġsometime": 3992,
      "Ġwounded": 3993,
      "Ġspoken": 3994,
      "Ġdrum": 3995,
      "Ġmarket": 3996,
      "cape": 3997,
      "Ġwaters": 3998,
      "Ġcursed": 3999,
      "Ġinstruct": 4000,
      "Ġinstrument": 4001,
      "ĠNap": 4002,
      "ĠRivers": 4003,
      "Ġterror": 4004,
      "Ġresolved": 4005,
      "chance": 4006,
      "Ġwhiles": 4007,
      "Ġcorrupt": 4008,
      "ney": 4009,
      "Ġburthen": 4010,
      "Ġgriev": 4011,
      "Ġduked": 4012,
      "Ġaccept": 4013,
      "Ġgroan": 4014,
      "BALTHAS": 4015,
      "Ġcolours": 4016,
      "Ġpenit": 4017,
      "Ġprotest": 4018,
      "Ġprinces": 4019,
      "Ġprincess": 4020,
      "ĠStanley": 4021,
      "Ġgovernment": 4022,
      "Prithee": 4023,
      "Ġobedience": 4024,
      "Ġpetition": 4025,
      "Ġsolemn": 4026,
      "Believe": 4027,
      "Ġcontinue": 4028,
      "Ġcredit": 4029,
      "Ġseveral": 4030,
      "hearted": 4031,
      "Ġwreck": 4032,
      "Ġlanguage": 4033,
      "Ġcircum": 4034,
      "Ġdurst": 4035,
      "Ġremembrance": 4036,
      "Ġpublic": 4037,
      "Ġunnatural": 4038,
      "picion": 4039,
      "Ġdukedom": 4040,
      "BALTHASAR": 4041,
      "?--": 4042,
      "Ar": 4043,
      "App": 4044,
      "AEd": 4045,
      "Bear": 4046,
      "Boat": 4047,
      "Father": 4048,
      "FOL": 4049,
      "Heaven": 4050,
      "Love": 4051,
      "Might": 4052,
      "Mark": 4053,
      "OS": 4054,
      "Post": 4055,
      "Page": 4056,
      "Save": 4057,
      "afe": 4058,
      "bear": 4059,
      "do": 4060,
      "dds": 4061,
      "ex": 4062,
      "fer": 4063,
      "gers": 4064,
      "how": 4065,
      "ipe": 4066,
      "just": 4067,
      "lic": 4068,
      "oe": 4069,
      "oved": 4070,
      "ped": 4071,
      "pro": 4072,
      "sc": 4073,
      "same": 4074,
      "time": 4075,
      "uary": 4076,
      "val": 4077,
      "vours": 4078,
      "yr": 4079,
      "ĠNay": 4080,
      "ĠThey": 4081,
      "Ġtest": 4082,
      "Ġteeth": 4083,
      "hest": 4084,
      "Ġsink": 4085,
      "Ġsins": 4086,
      "Ġmag": 4087,
      "Ġmile": 4088,
      "ination": 4089,
      "happy": 4090,
      "ishop": 4091,
      "Ġfame": 4092,
      "erd": 4093,
      "ita": 4094,
      "Ġcock": 4095
    },
    "merges": [
      [
        "Ġ",
        "t"
      ],
      [
        "h",
        "e"
      ],
      [
        "Ġ",
        "a"
      ],
      [
        "o",
        "u"
      ],
      [
        "Ġ",
        "s"
      ],
      [
        "Ġ",
        "m"
      ],
      [
        "i",
        "n"
      ],
      [
        "Ġ",
        "w"
      ],
      [
        "r",
        "e"
      ],
      [
        "h",
        "a"
      ],
      [
        "n",
        "d"
      ],
      [
        "Ġt",
        "he"
      ],
      [
        "Ġ",
        "b"
      ],
      [
        "i",
        "s"
      ],
      [
        "o",
        "r"
      ],
      [
        "Ġ",
        "f"
      ],
      [
        "e",
        "r"
      ],
      [
        "l",
        "l"
      ],
      [
        "i",
        "t"
      ],
      [
        "o",
        "n"
      ],
      [
        "Ġ",
        "d"
      ],
      [
        "Ġ",
        "c"
      ],
      [
        "e",
        "s"
      ],
      [
        "e",
        "n"
      ],
      [
        "Ġ",
        "n"
      ],
      [
        "Ġ",
        "l"
      ],
      [
        "Ġ",
        "y"
      ],
      [
        "Ġt",
        "h"
      ],
      [
        "a",
        "r"
      ],
      [
        "Ġ",
        "h"
      ],
      [
        "Ġ",
        "o"
      ],
      [
        "Ġt",
        "o"
      ],
      [
        "Ġy",
        "ou"
      ],
      [
        "Ġ",
        "p"
      ],
      [
        "ha",
        "t"
      ],
      [
        "Ġ",
        "I"
      ],
      [
        "Ġ",
        "he"
      ],
      [
        "v",
        "e"
      ],
      [
        "o",
        "t"
      ],
      [
        "s",
        "t"
      ],
      [
        "Ġa",
        "nd"
      ],
      [
        "o",
        "w"
      ],
      [
        "in",
        "g"
      ],
      [
        "a",
        "n"
      ],
      [
        "Ġo",
        "f"
      ],
      [
        "o",
        "m"
      ],
      [
        "Ġ",
        "g"
      ],
      [
        "a",
        "t"
      ],
      [
        "Ġb",
        "e"
      ],
      [
        "s",
        "e"
      ],
      [
        "Ġm",
        "y"
      ],
      [
        "Ġ",
        "in"
      ],
      [
        "c",
        "e"
      ],
      [
        "Ġ",
        "ha"
      ],
      [
        "l",
        "e"
      ],
      [
        "a",
        "y"
      ],
      [
        "l",
        "d"
      ],
      [
        "i",
        "r"
      ],
      [
        "e",
        "t"
      ],
      [
        "e",
        "d"
      ],
      [
        "u",
        "t"
      ],
      [
        "Ġm",
        "e"
      ],
      [
        "i",
        "m"
      ],
      [
        "it",
        "h"
      ],
      [
        "'",
        "s"
      ],
      [
        "Ġn",
        "ot"
      ],
      [
        "c",
        "h"
      ],
      [
        "Ġt",
        "hat"
      ],
      [
        "Ġ",
        "is"
      ],
      [
        "g",
        "h"
      ],
      [
        "A",
        "nd"
      ],
      [
        "Ġf",
        "or"
      ],
      [
        "k",
        "e"
      ],
      [
        "Ġ",
        "u"
      ],
      [
        "ou",
        "r"
      ],
      [
        "Ġw",
        "e"
      ],
      [
        "o",
        "o"
      ],
      [
        "i",
        "ll"
      ],
      [
        "Ġ",
        "e"
      ],
      [
        "he",
        "r"
      ],
      [
        "Ġw",
        "ith"
      ],
      [
        "en",
        "t"
      ],
      [
        "Ġ",
        "it"
      ],
      [
        "Ġyou",
        "r"
      ],
      [
        "a",
        "d"
      ],
      [
        "r",
        "i"
      ],
      [
        "Ġth",
        "ou"
      ],
      [
        "Ġs",
        "t"
      ],
      [
        "'",
        "d"
      ],
      [
        "Ġ",
        "k"
      ],
      [
        "om",
        "e"
      ],
      [
        "Ġh",
        "is"
      ],
      [
        "gh",
        "t"
      ],
      [
        "E",
        "N"
      ],
      [
        "or",
        "d"
      ],
      [
        "i",
        "d"
      ],
      [
        "T",
        "he"
      ],
      [
        "a",
        "s"
      ],
      [
        "Ġ",
        "re"
      ],
      [
        "Ġha",
        "ve"
      ],
      [
        "I",
        "N"
      ],
      [
        "l",
        "y"
      ],
      [
        "r",
        "a"
      ],
      [
        "Ġl",
        "i"
      ],
      [
        "Ġh",
        "im"
      ],
      [
        "u",
        "r"
      ],
      [
        "Ġth",
        "is"
      ],
      [
        "a",
        "l"
      ],
      [
        "I",
        "O"
      ],
      [
        "Ġs",
        "o"
      ],
      [
        "Ġa",
        "s"
      ],
      [
        "Ġd",
        "e"
      ],
      [
        "Ġ",
        "on"
      ],
      [
        "o",
        "re"
      ],
      [
        "r",
        "o"
      ],
      [
        "A",
        "R"
      ],
      [
        "h",
        "i"
      ],
      [
        "ou",
        "ld"
      ],
      [
        "oo",
        "d"
      ],
      [
        "c",
        "k"
      ],
      [
        "a",
        "in"
      ],
      [
        "v",
        "er"
      ],
      [
        "es",
        "t"
      ],
      [
        "Ġth",
        "y"
      ],
      [
        "Ġs",
        "ha"
      ],
      [
        "es",
        "s"
      ],
      [
        "e",
        "a"
      ],
      [
        "Ġd",
        "o"
      ],
      [
        "Ġw",
        "ill"
      ],
      [
        "a",
        "m"
      ],
      [
        "Ġn",
        "o"
      ],
      [
        "Ġb",
        "ut"
      ],
      [
        "u",
        "s"
      ],
      [
        "a",
        "nd"
      ],
      [
        "U",
        "S"
      ],
      [
        "i",
        "f"
      ],
      [
        "Ġs",
        "e"
      ],
      [
        "g",
        "e"
      ],
      [
        "T",
        "h"
      ],
      [
        "Ġa",
        "ll"
      ],
      [
        "a",
        "ke"
      ],
      [
        "Ġs",
        "u"
      ],
      [
        "T",
        "o"
      ],
      [
        "Ġhe",
        "r"
      ],
      [
        "r",
        "u"
      ],
      [
        "i",
        "on"
      ],
      [
        "t",
        "h"
      ],
      [
        "Ġa",
        "n"
      ],
      [
        "t",
        "er"
      ],
      [
        "ar",
        "d"
      ],
      [
        "Ġl",
        "o"
      ],
      [
        "ha",
        "n"
      ],
      [
        "e",
        "ll"
      ],
      [
        "e",
        "ar"
      ],
      [
        "Ġs",
        "p"
      ],
      [
        "Ġthe",
        "e"
      ],
      [
        "Ġ",
        "our"
      ],
      [
        "Ġf",
        "a"
      ],
      [
        "Ġsha",
        "ll"
      ],
      [
        "Ġb",
        "y"
      ],
      [
        "U",
        "C"
      ],
      [
        "i",
        "l"
      ],
      [
        "Ġa",
        "re"
      ],
      [
        "IN",
        "G"
      ],
      [
        "Ġ",
        "C"
      ],
      [
        "r",
        "om"
      ],
      [
        "Ġn",
        "e"
      ],
      [
        "h",
        "o"
      ],
      [
        "Ġk",
        "n"
      ],
      [
        "A",
        "N"
      ],
      [
        "Ġ",
        "R"
      ],
      [
        "T",
        "hat"
      ],
      [
        "Ġ",
        "v"
      ],
      [
        "E",
        "R"
      ],
      [
        "O",
        "R"
      ],
      [
        "a",
        "st"
      ],
      [
        "c",
        "t"
      ],
      [
        "ou",
        "s"
      ],
      [
        "Ġw",
        "hat"
      ],
      [
        "i",
        "ght"
      ],
      [
        "Ġs",
        "h"
      ],
      [
        "u",
        "l"
      ],
      [
        "E",
        "T"
      ],
      [
        "Ġ",
        "'"
      ],
      [
        "an",
        "t"
      ],
      [
        "E",
        "S"
      ],
      [
        "Ġu",
        "p"
      ],
      [
        "se",
        "l"
      ],
      [
        "q",
        "u"
      ],
      [
        "B",
        "ut"
      ],
      [
        "ar",
        "t"
      ],
      [
        "Ġg",
        "ood"
      ],
      [
        "r",
        "ow"
      ],
      [
        "in",
        "e"
      ],
      [
        "at",
        "h"
      ],
      [
        "Ġl",
        "ord"
      ],
      [
        "hi",
        "ch"
      ],
      [
        "n",
        "t"
      ],
      [
        "u",
        "st"
      ],
      [
        "'",
        "ll"
      ],
      [
        "on",
        "e"
      ],
      [
        "Ġp",
        "r"
      ],
      [
        "Ġc",
        "om"
      ],
      [
        "Ġa",
        "t"
      ],
      [
        "Ġm",
        "an"
      ],
      [
        "W",
        "hat"
      ],
      [
        "Ġ",
        "M"
      ],
      [
        "Ġw",
        "he"
      ],
      [
        "Ġ",
        "E"
      ],
      [
        "K",
        "ING"
      ],
      [
        "Ġa",
        "m"
      ],
      [
        "e",
        "nd"
      ],
      [
        "i",
        "c"
      ],
      [
        "Ġc",
        "on"
      ],
      [
        "b",
        "le"
      ],
      [
        "r",
        "y"
      ],
      [
        "on",
        "g"
      ],
      [
        "i",
        "e"
      ],
      [
        "i",
        "ve"
      ],
      [
        "Ġb",
        "l"
      ],
      [
        "Ġf",
        "rom"
      ],
      [
        "v",
        "en"
      ],
      [
        "Ġ",
        "G"
      ],
      [
        "F",
        "or"
      ],
      [
        "Ġs",
        "he"
      ],
      [
        "e",
        "m"
      ],
      [
        "Ġg",
        "o"
      ],
      [
        "a",
        "re"
      ],
      [
        "Ġm",
        "ore"
      ],
      [
        "I",
        "C"
      ],
      [
        "ou",
        "t"
      ],
      [
        "Ġthe",
        "m"
      ],
      [
        "a",
        "u"
      ],
      [
        "Ġw",
        "as"
      ],
      [
        "ot",
        "h"
      ],
      [
        "ot",
        "her"
      ],
      [
        "H",
        "e"
      ],
      [
        "Ġs",
        "ir"
      ],
      [
        "o",
        "l"
      ],
      [
        "Ġn",
        "ow"
      ],
      [
        "Ġ",
        "L"
      ],
      [
        "Ġ",
        "hat"
      ],
      [
        "o",
        "st"
      ],
      [
        "Ġ",
        "if"
      ],
      [
        "L",
        "O"
      ],
      [
        "in",
        "d"
      ],
      [
        "Ġthe",
        "re"
      ],
      [
        "Ġw",
        "ould"
      ],
      [
        "Ġkn",
        "ow"
      ],
      [
        "Ġc",
        "an"
      ],
      [
        "er",
        "s"
      ],
      [
        "I",
        "US"
      ],
      [
        "e",
        "p"
      ],
      [
        "sel",
        "f"
      ],
      [
        "AR",
        "D"
      ],
      [
        "at",
        "her"
      ],
      [
        "f",
        "e"
      ],
      [
        "o",
        "nd"
      ],
      [
        "re",
        "s"
      ],
      [
        "at",
        "e"
      ],
      [
        "Ġs",
        "ay"
      ],
      [
        "Ġhe",
        "re"
      ],
      [
        "Ġlo",
        "ve"
      ],
      [
        "Ġs",
        "w"
      ],
      [
        "Ġthe",
        "ir"
      ],
      [
        "Ġb",
        "r"
      ],
      [
        "p",
        "p"
      ],
      [
        "Ġ",
        "or"
      ],
      [
        "-",
        "-"
      ],
      [
        "a",
        "ll"
      ],
      [
        "Ġ",
        "S"
      ],
      [
        "Ġt",
        "han"
      ],
      [
        "Ġthe",
        "n"
      ],
      [
        "Ġk",
        "ing"
      ],
      [
        "Ġu",
        "s"
      ],
      [
        "Ġ",
        "O"
      ],
      [
        "Ġ",
        "B"
      ],
      [
        "Ġthe",
        "y"
      ],
      [
        "Ġa",
        "r"
      ],
      [
        "o",
        "d"
      ],
      [
        "M",
        "y"
      ],
      [
        "Ġl",
        "et"
      ],
      [
        "Ġu",
        "n"
      ],
      [
        "i",
        "g"
      ],
      [
        "Ġw",
        "or"
      ],
      [
        "u",
        "re"
      ],
      [
        "in",
        "k"
      ],
      [
        "Ġ",
        "H"
      ],
      [
        "or",
        "t"
      ],
      [
        "h",
        "y"
      ],
      [
        "Ġ",
        "V"
      ],
      [
        "am",
        "e"
      ],
      [
        "f",
        "ore"
      ],
      [
        "A",
        "s"
      ],
      [
        "Ġm",
        "ay"
      ],
      [
        "e",
        "l"
      ],
      [
        "Ġ",
        "qu"
      ],
      [
        "Ġc",
        "ome"
      ],
      [
        "oo",
        "k"
      ],
      [
        "W",
        "he"
      ],
      [
        "is",
        "h"
      ],
      [
        "L",
        "I"
      ],
      [
        "Ġwe",
        "ll"
      ],
      [
        "K",
        "E"
      ],
      [
        "v",
        "es"
      ],
      [
        "Ġ",
        "j"
      ],
      [
        "Ġon",
        "e"
      ],
      [
        "Ġhat",
        "h"
      ],
      [
        "ir",
        "st"
      ],
      [
        "Y",
        "ou"
      ],
      [
        "Ġm",
        "ake"
      ],
      [
        "re",
        "at"
      ],
      [
        "a",
        "k"
      ],
      [
        "g",
        "ain"
      ],
      [
        "Ġm",
        "ust"
      ],
      [
        "ou",
        "nd"
      ],
      [
        "n",
        "g"
      ],
      [
        "Ġg",
        "ra"
      ],
      [
        "Ġwe",
        "re"
      ],
      [
        "Ġh",
        "o"
      ],
      [
        "c",
        "i"
      ],
      [
        "Ġse",
        "e"
      ],
      [
        "Ġli",
        "ke"
      ],
      [
        "u",
        "e"
      ],
      [
        "ea",
        "k"
      ],
      [
        "T",
        "IO"
      ],
      [
        "Ġsh",
        "ould"
      ],
      [
        "it",
        "y"
      ],
      [
        "Ġp",
        "ro"
      ],
      [
        "Ġ",
        "P"
      ],
      [
        "Ġs",
        "a"
      ],
      [
        "Ġm",
        "ad"
      ],
      [
        "u",
        "m"
      ],
      [
        "Ġp",
        "l"
      ],
      [
        "Ġf",
        "ather"
      ],
      [
        "R",
        "O"
      ],
      [
        "A",
        "U"
      ],
      [
        "Ġha",
        "d"
      ],
      [
        "Ġd",
        "id"
      ],
      [
        "p",
        "e"
      ],
      [
        "im",
        "e"
      ],
      [
        "Ġup",
        "on"
      ],
      [
        "i",
        "ce"
      ],
      [
        "O",
        "N"
      ],
      [
        "Ġto",
        "o"
      ],
      [
        "en",
        "ce"
      ],
      [
        "Ġ",
        "W"
      ],
      [
        "w",
        "ard"
      ],
      [
        "is",
        "t"
      ],
      [
        "Ġde",
        "ath"
      ],
      [
        "ow",
        "n"
      ],
      [
        "m",
        "an"
      ],
      [
        "o",
        "se"
      ],
      [
        "Ġ",
        "en"
      ],
      [
        "u",
        "n"
      ],
      [
        "I",
        "S"
      ],
      [
        "f",
        "ul"
      ],
      [
        "n",
        "ce"
      ],
      [
        "Ġ",
        "r"
      ],
      [
        "Ġp",
        "o"
      ],
      [
        "Ġsp",
        "eak"
      ],
      [
        "d",
        "e"
      ],
      [
        "ent",
        "le"
      ],
      [
        "i",
        "o"
      ],
      [
        "Ġ",
        "out"
      ],
      [
        "p",
        "t"
      ],
      [
        "Ġw",
        "hich"
      ],
      [
        "IC",
        "H"
      ],
      [
        "Ġf",
        "ri"
      ],
      [
        "O",
        "L"
      ],
      [
        "D",
        "U"
      ],
      [
        "Ġa",
        "gain"
      ],
      [
        "DU",
        "KE"
      ],
      [
        "Ġh",
        "ow"
      ],
      [
        "E",
        "L"
      ],
      [
        "i",
        "ck"
      ],
      [
        "Ġ",
        "A"
      ],
      [
        "Ġt",
        "ru"
      ],
      [
        "Ġhe",
        "art"
      ],
      [
        "Ġy",
        "et"
      ],
      [
        "Ġha",
        "nd"
      ],
      [
        "C",
        "A"
      ],
      [
        "Th",
        "ou"
      ],
      [
        "ver",
        "y"
      ],
      [
        "ICH",
        "ARD"
      ],
      [
        "EN",
        "TIO"
      ],
      [
        "W",
        "ith"
      ],
      [
        "ig",
        "n"
      ],
      [
        "Ġs",
        "ome"
      ],
      [
        "an",
        "ce"
      ],
      [
        "Ġw",
        "ho"
      ],
      [
        "W",
        "hich"
      ],
      [
        "I",
        "f"
      ],
      [
        "Ġwhe",
        "n"
      ],
      [
        "i",
        "es"
      ],
      [
        "Ġm",
        "ar"
      ],
      [
        "i",
        "re"
      ],
      [
        "Ġm",
        "ine"
      ],
      [
        "Ġh",
        "on"
      ],
      [
        "ha",
        "r"
      ],
      [
        "or",
        "n"
      ],
      [
        "Ġof",
        "f"
      ],
      [
        "in",
        "ce"
      ],
      [
        "IN",
        "C"
      ],
      [
        "I",
        "n"
      ],
      [
        "a",
        "ck"
      ],
      [
        "Ġ",
        "Y"
      ],
      [
        "Ġs",
        "on"
      ],
      [
        "Ġd",
        "is"
      ],
      [
        "Ġa",
        "l"
      ],
      [
        "'",
        "t"
      ],
      [
        "W",
        "e"
      ],
      [
        "u",
        "ch"
      ],
      [
        "w",
        "n"
      ],
      [
        "Ġhe",
        "a"
      ],
      [
        "F",
        "irst"
      ],
      [
        "o",
        "y"
      ],
      [
        "Ġt",
        "ime"
      ],
      [
        "Ġhe",
        "ar"
      ],
      [
        "A",
        "B"
      ],
      [
        "e",
        "c"
      ],
      [
        "Ġsu",
        "ch"
      ],
      [
        "n",
        "ess"
      ],
      [
        "L",
        "A"
      ],
      [
        "Ġbr",
        "other"
      ],
      [
        "O",
        "f"
      ],
      [
        "Ġbl",
        "ood"
      ],
      [
        "it",
        "her"
      ],
      [
        "Ġa",
        "b"
      ],
      [
        "U",
        "E"
      ],
      [
        "W",
        "hy"
      ],
      [
        "Ġthe",
        "se"
      ],
      [
        "N",
        "o"
      ],
      [
        "Ġg",
        "ive"
      ],
      [
        "Ġf",
        "o"
      ],
      [
        "Ġd",
        "ay"
      ],
      [
        "ĠI",
        "I"
      ],
      [
        "Ġe",
        "ar"
      ],
      [
        "ĠR",
        "ICHARD"
      ],
      [
        "T",
        "ER"
      ],
      [
        "Ġ",
        "ro"
      ],
      [
        "is",
        "e"
      ],
      [
        "Ġe",
        "x"
      ],
      [
        "Ġli",
        "fe"
      ],
      [
        "Th",
        "is"
      ],
      [
        "e",
        "et"
      ],
      [
        "Ġt",
        "ell"
      ],
      [
        "S",
        "o"
      ],
      [
        "Ġl",
        "ook"
      ],
      [
        "Ġth",
        "ink"
      ],
      [
        "UC",
        "H"
      ],
      [
        "ou",
        "l"
      ],
      [
        "Ġw",
        "ord"
      ],
      [
        "Ġe",
        "y"
      ],
      [
        "Ġwhe",
        "re"
      ],
      [
        "a",
        "g"
      ],
      [
        "a",
        "ge"
      ],
      [
        "e",
        "en"
      ],
      [
        "t",
        "her"
      ],
      [
        "G",
        "LO"
      ],
      [
        "Ġt",
        "ake"
      ],
      [
        "UC",
        "ES"
      ],
      [
        "Ġfri",
        "end"
      ],
      [
        "GLO",
        "UCES"
      ],
      [
        "GLOUCES",
        "TER"
      ],
      [
        "e",
        "f"
      ],
      [
        "er",
        "v"
      ],
      [
        "ad",
        "y"
      ],
      [
        "row",
        "n"
      ],
      [
        "Ġd",
        "es"
      ],
      [
        "ing",
        "s"
      ],
      [
        "a",
        "ve"
      ],
      [
        "n",
        "ot"
      ],
      [
        "Ġg",
        "entle"
      ],
      [
        "ur",
        "se"
      ],
      [
        "H",
        "ow"
      ],
      [
        "R",
        "Y"
      ],
      [
        "Ġ",
        "ri"
      ],
      [
        "a",
        "se"
      ],
      [
        "Q",
        "UE"
      ],
      [
        "w",
        "ay"
      ],
      [
        "INC",
        "ENTIO"
      ],
      [
        "QUE",
        "EN"
      ],
      [
        "Ġl",
        "ea"
      ],
      [
        "t",
        "is"
      ],
      [
        "ĠO",
        "F"
      ],
      [
        "Ġar",
        "t"
      ],
      [
        "Ġm",
        "ost"
      ],
      [
        "Whe",
        "re"
      ],
      [
        "Ġhon",
        "our"
      ],
      [
        "L",
        "AN"
      ],
      [
        "Ġm",
        "uch"
      ],
      [
        "Ġs",
        "l"
      ],
      [
        "Ġw",
        "ar"
      ],
      [
        "Ġf",
        "l"
      ],
      [
        "ur",
        "n"
      ],
      [
        "Ġmad",
        "e"
      ],
      [
        "m",
        "ent"
      ],
      [
        "N",
        "ow"
      ],
      [
        "Ġha",
        "st"
      ],
      [
        "Ġt",
        "w"
      ],
      [
        "Ġf",
        "ear"
      ],
      [
        "Ġ",
        "T"
      ],
      [
        "Ġbe",
        "t"
      ],
      [
        "EN",
        "RY"
      ],
      [
        "au",
        "ght"
      ],
      [
        "I",
        "s"
      ],
      [
        "L",
        "E"
      ],
      [
        "b",
        "er"
      ],
      [
        "f",
        "f"
      ],
      [
        "ĠG",
        "od"
      ],
      [
        "ou",
        "gh"
      ],
      [
        "ve",
        "d"
      ],
      [
        "Ġb",
        "re"
      ],
      [
        "c",
        "c"
      ],
      [
        "ow",
        "er"
      ],
      [
        "Ġne",
        "ver"
      ],
      [
        "ĠV",
        "INCENTIO"
      ],
      [
        "B",
        "e"
      ],
      [
        "a",
        "p"
      ],
      [
        "i",
        "gh"
      ],
      [
        "Ġ",
        "K"
      ],
      [
        "Ġg",
        "reat"
      ],
      [
        "Ġfa",
        "ir"
      ],
      [
        "W",
        "ho"
      ],
      [
        "e",
        "e"
      ],
      [
        "t",
        "le"
      ],
      [
        "Ġm",
        "en"
      ],
      [
        "or",
        "row"
      ],
      [
        "Ġc",
        "ou"
      ],
      [
        "Ġne",
        "w"
      ],
      [
        "ĠR",
        "ome"
      ],
      [
        "ast",
        "er"
      ],
      [
        "u",
        "ke"
      ],
      [
        "i",
        "z"
      ],
      [
        "o",
        "ld"
      ],
      [
        "OR",
        "K"
      ],
      [
        "Ġp",
        "art"
      ],
      [
        "at",
        "ion"
      ],
      [
        "IN",
        "IUS"
      ],
      [
        "s",
        "s"
      ],
      [
        "re",
        "e"
      ],
      [
        "id",
        "e"
      ],
      [
        "O",
        "r"
      ],
      [
        "Ġc",
        "all"
      ],
      [
        "p",
        "le"
      ],
      [
        "Ġan",
        "y"
      ],
      [
        "Ġhea",
        "ven"
      ],
      [
        "Ġa",
        "d"
      ],
      [
        "Ġcom",
        "m"
      ],
      [
        "I",
        "t"
      ],
      [
        "Y",
        "our"
      ],
      [
        "Ġst",
        "and"
      ],
      [
        "Ġcan",
        "not"
      ],
      [
        "Ġtru",
        "e"
      ],
      [
        "D",
        "W"
      ],
      [
        "Ġn",
        "ame"
      ],
      [
        "Ġbe",
        "en"
      ],
      [
        "ear",
        "s"
      ],
      [
        "DW",
        "ARD"
      ],
      [
        "Ġc",
        "l"
      ],
      [
        "Ġp",
        "re"
      ],
      [
        "Ġsw",
        "eet"
      ],
      [
        ",",
        "--"
      ],
      [
        "Ġd",
        "oth"
      ],
      [
        "Ġpr",
        "ay"
      ],
      [
        "h",
        "ing"
      ],
      [
        "P",
        "ET"
      ],
      [
        "U",
        "M"
      ],
      [
        "Ġno",
        "ble"
      ],
      [
        "L",
        "UC"
      ],
      [
        "M",
        "EN"
      ],
      [
        "T",
        "H"
      ],
      [
        "Ġo",
        "wn"
      ],
      [
        "Ġp",
        "le"
      ],
      [
        "as",
        "s"
      ],
      [
        "Ġ",
        "D"
      ],
      [
        "ou",
        "se"
      ],
      [
        "Ġp",
        "er"
      ],
      [
        "A",
        "y"
      ],
      [
        "C",
        "ome"
      ],
      [
        "u",
        "ll"
      ],
      [
        "The",
        "re"
      ],
      [
        "Ġw",
        "r"
      ],
      [
        "Ġd",
        "one"
      ],
      [
        "if",
        "e"
      ],
      [
        "a",
        "w"
      ],
      [
        "Ġt",
        "r"
      ],
      [
        "Ġw",
        "ay"
      ],
      [
        "Ġo",
        "ther"
      ],
      [
        "Ġhe",
        "ad"
      ],
      [
        "Ġme",
        "an"
      ],
      [
        "l",
        "i"
      ],
      [
        "re",
        "d"
      ],
      [
        "Whe",
        "n"
      ],
      [
        "d",
        "ward"
      ],
      [
        "Ġn",
        "or"
      ],
      [
        "E",
        "O"
      ],
      [
        "M",
        "EO"
      ],
      [
        "Ġs",
        "c"
      ],
      [
        "Ġs",
        "oul"
      ],
      [
        "Ġp",
        "res"
      ],
      [
        "RO",
        "MEO"
      ],
      [
        "a",
        "ce"
      ],
      [
        "v",
        "ing"
      ],
      [
        "Ġn",
        "ight"
      ],
      [
        "Ġbe",
        "ar"
      ],
      [
        "EN",
        "IUS"
      ],
      [
        "ain",
        "t"
      ],
      [
        "ĠC",
        "l"
      ],
      [
        "Ġwor",
        "ld"
      ],
      [
        "MEN",
        "ENIUS"
      ],
      [
        "g",
        "er"
      ],
      [
        "Ġbe",
        "fore"
      ],
      [
        "au",
        "se"
      ],
      [
        "Ġb",
        "oth"
      ],
      [
        "Ġqu",
        "een"
      ],
      [
        "p",
        "er"
      ],
      [
        "The",
        "n"
      ],
      [
        "aught",
        "er"
      ],
      [
        "R",
        "UCH"
      ],
      [
        "o",
        "ck"
      ],
      [
        "Ġc",
        "hi"
      ],
      [
        "He",
        "re"
      ],
      [
        "PET",
        "RUCH"
      ],
      [
        "PETRUCH",
        "IO"
      ],
      [
        "O",
        "M"
      ],
      [
        "a",
        "ble"
      ],
      [
        "Ġ",
        "very"
      ],
      [
        "Ġde",
        "ad"
      ],
      [
        "T",
        "ES"
      ],
      [
        "B",
        "y"
      ],
      [
        "Ġ",
        "ra"
      ],
      [
        "it",
        "e"
      ],
      [
        "T",
        "han"
      ],
      [
        "t",
        "he"
      ],
      [
        "Ġ",
        "ke"
      ],
      [
        "a",
        "b"
      ],
      [
        "l",
        "es"
      ],
      [
        "Ġ",
        "F"
      ],
      [
        "Ġd",
        "own"
      ],
      [
        "t",
        "o"
      ],
      [
        "Ġa",
        "pp"
      ],
      [
        "Ġmy",
        "self"
      ],
      [
        "Ġcon",
        "t"
      ],
      [
        "G",
        "R"
      ],
      [
        "H",
        "A"
      ],
      [
        "Ġw",
        "h"
      ],
      [
        "Ġre",
        "m"
      ],
      [
        "ĠL",
        "ord"
      ],
      [
        "Ġar",
        "m"
      ],
      [
        "Ġth",
        "us"
      ],
      [
        "IO",
        "LAN"
      ],
      [
        "il",
        "t"
      ],
      [
        "OR",
        "IOLAN"
      ],
      [
        "ORIOLAN",
        "US"
      ],
      [
        "C",
        "ORIOLANUS"
      ],
      [
        "S",
        "ec"
      ],
      [
        "Ġlea",
        "ve"
      ],
      [
        "Sec",
        "ond"
      ],
      [
        "Ġbe",
        "ing"
      ],
      [
        "ct",
        "ion"
      ],
      [
        "ĠE",
        "dward"
      ],
      [
        "N",
        "or"
      ],
      [
        "s",
        "w"
      ],
      [
        "Ġu",
        "nt"
      ],
      [
        "res",
        "s"
      ],
      [
        "Ġgra",
        "ce"
      ],
      [
        "l",
        "ess"
      ],
      [
        "Ġbe",
        "g"
      ],
      [
        "Ġey",
        "es"
      ],
      [
        "B",
        "A"
      ],
      [
        "l",
        "and"
      ],
      [
        "Ġm",
        "other"
      ],
      [
        "r",
        "an"
      ],
      [
        "Ġm",
        "a"
      ],
      [
        "Ġo",
        "ld"
      ],
      [
        "Ġ",
        "im"
      ],
      [
        "IN",
        "A"
      ],
      [
        "ĠE",
        "DWARD"
      ],
      [
        "it",
        "iz"
      ],
      [
        "itiz",
        "en"
      ],
      [
        "p",
        "s"
      ],
      [
        "Ġl",
        "ong"
      ],
      [
        "Ġe",
        "ver"
      ],
      [
        "ĠM",
        "ar"
      ],
      [
        "Ġli",
        "ve"
      ],
      [
        "Ġchi",
        "ld"
      ],
      [
        "L",
        "et"
      ],
      [
        "m",
        "e"
      ],
      [
        "Ġw",
        "ife"
      ],
      [
        "S",
        "he"
      ],
      [
        "Ġa",
        "way"
      ],
      [
        "Ġre",
        "p"
      ],
      [
        "ĠII",
        "I"
      ],
      [
        "Ġw",
        "om"
      ],
      [
        "Ġpo",
        "or"
      ],
      [
        "Ġfriend",
        "s"
      ],
      [
        "c",
        "ome"
      ],
      [
        "f",
        "or"
      ],
      [
        "w",
        "ick"
      ],
      [
        "Ġa",
        "f"
      ],
      [
        "Ġm",
        "ight"
      ],
      [
        "nd",
        "er"
      ],
      [
        "Ġst",
        "ay"
      ],
      [
        "ea",
        "ce"
      ],
      [
        "k",
        "s"
      ],
      [
        "ou",
        "d"
      ],
      [
        "Ġd",
        "ie"
      ],
      [
        "at",
        "ch"
      ],
      [
        "le",
        "d"
      ],
      [
        "Ġ",
        "J"
      ],
      [
        "Ġ",
        "ru"
      ],
      [
        "ar",
        "wick"
      ],
      [
        "Ġcom",
        "es"
      ],
      [
        "Ġcon",
        "s"
      ],
      [
        "Ġc",
        "rown"
      ],
      [
        "ow",
        "s"
      ],
      [
        "Ġman",
        "y"
      ],
      [
        "Ġp",
        "e"
      ],
      [
        "T",
        "is"
      ],
      [
        "ha",
        "ll"
      ],
      [
        "is",
        "on"
      ],
      [
        "Ġl",
        "e"
      ],
      [
        "ĠY",
        "ORK"
      ],
      [
        "l",
        "o"
      ],
      [
        "u",
        "ck"
      ],
      [
        "is",
        "s"
      ],
      [
        "Ġh",
        "ouse"
      ],
      [
        "Ġha",
        "r"
      ],
      [
        "Ġthou",
        "ght"
      ],
      [
        "Ġre",
        "st"
      ],
      [
        "IS",
        "AB"
      ],
      [
        "EL",
        "LA"
      ],
      [
        "ISAB",
        "ELLA"
      ],
      [
        "i",
        "an"
      ],
      [
        "er",
        "c"
      ],
      [
        "Ġc",
        "our"
      ],
      [
        "R",
        "AN"
      ],
      [
        "Ġ",
        "ent"
      ],
      [
        "Ġli",
        "e"
      ],
      [
        "c",
        "he"
      ],
      [
        "Ġs",
        "et"
      ],
      [
        "J",
        "U"
      ],
      [
        "w",
        "ell"
      ],
      [
        "or",
        "s"
      ],
      [
        "at",
        "ter"
      ],
      [
        "LI",
        "ET"
      ],
      [
        "ON",
        "TES"
      ],
      [
        "ĠW",
        "arwick"
      ],
      [
        "LE",
        "ONTES"
      ],
      [
        "JU",
        "LIET"
      ],
      [
        "N",
        "ay"
      ],
      [
        "in",
        "t"
      ],
      [
        "it",
        "tle"
      ],
      [
        "Ġd",
        "aughter"
      ],
      [
        "Ġg",
        "one"
      ],
      [
        "Ġbet",
        "ter"
      ],
      [
        "M",
        "I"
      ],
      [
        "r",
        "ant"
      ],
      [
        "ou",
        "ght"
      ],
      [
        "Ġpr",
        "ince"
      ],
      [
        "D",
        "Y"
      ],
      [
        "H",
        "is"
      ],
      [
        "Ġt",
        "ong"
      ],
      [
        "Ġw",
        "it"
      ],
      [
        "Ġnot",
        "hing"
      ],
      [
        "C",
        "E"
      ],
      [
        "V",
        "OL"
      ],
      [
        "EN",
        "CE"
      ],
      [
        "LA",
        "DY"
      ],
      [
        "B",
        "R"
      ],
      [
        "T",
        "A"
      ],
      [
        "c",
        "l"
      ],
      [
        "i",
        "ed"
      ],
      [
        "Ġke",
        "ep"
      ],
      [
        "G",
        "o"
      ],
      [
        "W",
        "ell"
      ],
      [
        "c",
        "es"
      ],
      [
        "i",
        "ous"
      ],
      [
        "o",
        "s"
      ],
      [
        "Ġs",
        "le"
      ],
      [
        "Ġre",
        "s"
      ],
      [
        "har",
        "d"
      ],
      [
        "Ġnew",
        "s"
      ],
      [
        "S",
        "IC"
      ],
      [
        "f",
        "t"
      ],
      [
        "i",
        "er"
      ],
      [
        "Ġt",
        "ri"
      ],
      [
        "Ġm",
        "o"
      ],
      [
        "re",
        "t"
      ],
      [
        "on",
        "t"
      ],
      [
        "Ġth",
        "ose"
      ],
      [
        "Ġg",
        "ri"
      ],
      [
        "oo",
        "l"
      ],
      [
        "un",
        "e"
      ],
      [
        "SIC",
        "INIUS"
      ],
      [
        "N",
        "ot"
      ],
      [
        "Ġl",
        "ittle"
      ],
      [
        "Ġlord",
        "s"
      ],
      [
        "Ġagain",
        "st"
      ],
      [
        "f",
        "ord"
      ],
      [
        "Ġb",
        "est"
      ],
      [
        "Ġh",
        "our"
      ],
      [
        "Ġhe",
        "nce"
      ],
      [
        "ard",
        "on"
      ],
      [
        "ak",
        "es"
      ],
      [
        "l",
        "se"
      ],
      [
        "Ġa",
        "cc"
      ],
      [
        "se",
        "d"
      ],
      [
        "Ġfa",
        "ce"
      ],
      [
        "ul",
        "t"
      ],
      [
        "Ġfo",
        "ll"
      ],
      [
        "O",
        "n"
      ],
      [
        "e",
        "w"
      ],
      [
        "u",
        "d"
      ],
      [
        "ar",
        "k"
      ],
      [
        "Ġyou",
        "ng"
      ],
      [
        "Ġe",
        "nd"
      ],
      [
        "or",
        "k"
      ],
      [
        "Ġth",
        "ing"
      ],
      [
        "Ġst",
        "ill"
      ],
      [
        "Ġk",
        "ind"
      ],
      [
        "ie",
        "ld"
      ],
      [
        "S",
        "T"
      ],
      [
        "Ġp",
        "ri"
      ],
      [
        "Ġp",
        "ur"
      ],
      [
        "al",
        "k"
      ],
      [
        "Th",
        "y"
      ],
      [
        "Ġcom",
        "p"
      ],
      [
        "LUC",
        "IO"
      ],
      [
        "a",
        "le"
      ],
      [
        "in",
        "s"
      ],
      [
        "er",
        "t"
      ],
      [
        "Ġp",
        "ut"
      ],
      [
        "Ġp",
        "ower"
      ],
      [
        "ĠI",
        "V"
      ],
      [
        "ic",
        "hard"
      ],
      [
        "Ġtw",
        "o"
      ],
      [
        "Ġc",
        "ha"
      ],
      [
        "Ġhim",
        "self"
      ],
      [
        "P",
        "ro"
      ],
      [
        "in",
        "ess"
      ],
      [
        "Ġf",
        "irst"
      ],
      [
        "Ġp",
        "eace"
      ],
      [
        "Ġg",
        "u"
      ],
      [
        "Ġe",
        "lse"
      ],
      [
        "ri",
        "ed"
      ],
      [
        "Ġde",
        "ar"
      ],
      [
        "ci",
        "ous"
      ],
      [
        "S",
        "ir"
      ],
      [
        "a",
        "il"
      ],
      [
        "t",
        "y"
      ],
      [
        "as",
        "on"
      ],
      [
        "hi",
        "le"
      ],
      [
        "Ġsu",
        "b"
      ],
      [
        "Ġunt",
        "o"
      ],
      [
        "i",
        "le"
      ],
      [
        "r",
        "ay"
      ],
      [
        "Ġt",
        "ill"
      ],
      [
        "Ġs",
        "m"
      ],
      [
        "ut",
        "y"
      ],
      [
        "R",
        "I"
      ],
      [
        "Z",
        "AB"
      ],
      [
        "e",
        "ct"
      ],
      [
        "Ġt",
        "ra"
      ],
      [
        "Ġb",
        "id"
      ],
      [
        "Ġb",
        "ack"
      ],
      [
        "Ġd",
        "re"
      ],
      [
        "Ġh",
        "us"
      ],
      [
        "ET",
        "H"
      ],
      [
        "ĠE",
        "LI"
      ],
      [
        "Ġthere",
        "fore"
      ],
      [
        "Ġear",
        "th"
      ],
      [
        "Ġword",
        "s"
      ],
      [
        "Ġcou",
        "nt"
      ],
      [
        "ZAB",
        "ETH"
      ],
      [
        "ĠELI",
        "ZABETH"
      ],
      [
        "H",
        "ave"
      ],
      [
        "b",
        "and"
      ],
      [
        "i",
        "us"
      ],
      [
        "m",
        "en"
      ],
      [
        "o",
        "ple"
      ],
      [
        "y",
        "al"
      ],
      [
        "Ġf",
        "ind"
      ],
      [
        "Ġc",
        "ould"
      ],
      [
        "Ġtong",
        "ue"
      ],
      [
        "or",
        "se"
      ],
      [
        "Ġl",
        "ady"
      ],
      [
        "Ġth",
        "ine"
      ],
      [
        "Ġne",
        "ed"
      ],
      [
        "ĠY",
        "ork"
      ],
      [
        "H",
        "ENRY"
      ],
      [
        "g",
        "et"
      ],
      [
        "t",
        "w"
      ],
      [
        "Ġt",
        "re"
      ],
      [
        "Ġf",
        "ell"
      ],
      [
        "en",
        "ry"
      ],
      [
        "Ġh",
        "igh"
      ],
      [
        "Ġfor",
        "th"
      ],
      [
        "Ġho",
        "pe"
      ],
      [
        "M",
        "ER"
      ],
      [
        "S",
        "t"
      ],
      [
        "l",
        "p"
      ],
      [
        "Ġh",
        "ome"
      ],
      [
        "ve",
        "re"
      ],
      [
        "et",
        "h"
      ],
      [
        "Ġse",
        "em"
      ],
      [
        "ee",
        "ch"
      ],
      [
        "ĠRome",
        "o"
      ],
      [
        "Ġhus",
        "band"
      ],
      [
        "C",
        "L"
      ],
      [
        "Ġd",
        "uke"
      ],
      [
        "Ġri",
        "ght"
      ],
      [
        "G",
        "E"
      ],
      [
        "W",
        "AR"
      ],
      [
        "W",
        "IC"
      ],
      [
        "f",
        "ort"
      ],
      [
        "Ġ",
        "What"
      ],
      [
        "re",
        "r"
      ],
      [
        "Ġb",
        "an"
      ],
      [
        "ut",
        "h"
      ],
      [
        "Ġthou",
        "gh"
      ],
      [
        "ĠV",
        "I"
      ],
      [
        "WAR",
        "WIC"
      ],
      [
        "WARWIC",
        "K"
      ],
      [
        "U",
        "T"
      ],
      [
        "a",
        "ch"
      ],
      [
        "i",
        "x"
      ],
      [
        "Ġm",
        "ind"
      ],
      [
        "Ġb",
        "ra"
      ],
      [
        "is",
        "ter"
      ],
      [
        "Ġc",
        "he"
      ],
      [
        "Ġc",
        "har"
      ],
      [
        "hi",
        "p"
      ],
      [
        "ĠH",
        "ENRY"
      ],
      [
        "Ġpe",
        "ople"
      ],
      [
        "N",
        "urse"
      ],
      [
        "d",
        "s"
      ],
      [
        "g",
        "ed"
      ],
      [
        "ĠC",
        "itizen"
      ],
      [
        "re",
        "n"
      ],
      [
        "The",
        "y"
      ],
      [
        "ĠH",
        "enry"
      ],
      [
        "HA",
        "M"
      ],
      [
        "I",
        "AN"
      ],
      [
        "L",
        "ET"
      ],
      [
        "P",
        "U"
      ],
      [
        "e",
        "ed"
      ],
      [
        "Ġb",
        "ri"
      ],
      [
        "Ġc",
        "han"
      ],
      [
        "Ġl",
        "aw"
      ],
      [
        "ĠR",
        "ichard"
      ],
      [
        "Ġsh",
        "ow"
      ],
      [
        "Ġcon",
        "f"
      ],
      [
        "Ġhand",
        "s"
      ],
      [
        "PU",
        "LET"
      ],
      [
        "E",
        "Y"
      ],
      [
        "b",
        "e"
      ],
      [
        "Ġm",
        "aster"
      ],
      [
        "Ġw",
        "hy"
      ],
      [
        "Ġc",
        "o"
      ],
      [
        "Ġc",
        "ause"
      ],
      [
        "Ġg",
        "l"
      ],
      [
        "Ġon",
        "ce"
      ],
      [
        "Ġsa",
        "id"
      ],
      [
        "Ġim",
        "p"
      ],
      [
        "G",
        "ood"
      ],
      [
        "M",
        "IO"
      ],
      [
        "S",
        "hall"
      ],
      [
        "Ġb",
        "od"
      ],
      [
        "Ġn",
        "one"
      ],
      [
        "ous",
        "in"
      ],
      [
        "Ġj",
        "oy"
      ],
      [
        "erv",
        "ant"
      ],
      [
        "A",
        "ll"
      ],
      [
        "b",
        "t"
      ],
      [
        "Ġfor",
        "t"
      ],
      [
        "Ġbr",
        "ing"
      ],
      [
        "Y",
        "et"
      ],
      [
        "Ġd",
        "ou"
      ],
      [
        "at",
        "es"
      ],
      [
        "Ġe",
        "very"
      ],
      [
        "UC",
        "KING"
      ],
      [
        "BR",
        "UT"
      ],
      [
        "UCKING",
        "HAM"
      ],
      [
        "BRUT",
        "US"
      ],
      [
        "B",
        "RO"
      ],
      [
        "B",
        "UCKINGHAM"
      ],
      [
        "F",
        "rom"
      ],
      [
        "T",
        "RAN"
      ],
      [
        "i",
        "et"
      ],
      [
        "Ġm",
        "ist"
      ],
      [
        "Ġp",
        "ass"
      ],
      [
        "ir",
        "d"
      ],
      [
        "Ġli",
        "ght"
      ],
      [
        "ING",
        "BRO"
      ],
      [
        "ES",
        "S"
      ],
      [
        "ĠB",
        "OL"
      ],
      [
        "TRAN",
        "IO"
      ],
      [
        "INGBRO",
        "KE"
      ],
      [
        "ĠBOL",
        "INGBROKE"
      ],
      [
        "D",
        "o"
      ],
      [
        "W",
        "ill"
      ],
      [
        "l",
        "t"
      ],
      [
        "v",
        "ost"
      ],
      [
        "Ġw",
        "o"
      ],
      [
        "Ġn",
        "at"
      ],
      [
        "Ġth",
        "r"
      ],
      [
        "Ġro",
        "yal"
      ],
      [
        "sw",
        "er"
      ],
      [
        "P",
        "ER"
      ],
      [
        "T",
        "IS"
      ],
      [
        "c",
        "le"
      ],
      [
        "Ġt",
        "ears"
      ],
      [
        "it",
        "s"
      ],
      [
        "Ġc",
        "ame"
      ],
      [
        "ar",
        "y"
      ],
      [
        "ĠM",
        "AR"
      ],
      [
        "Ġwho",
        "se"
      ],
      [
        "Ġple",
        "ase"
      ],
      [
        "l",
        "f"
      ],
      [
        "v",
        "y"
      ],
      [
        "or",
        "y"
      ],
      [
        "Ġp",
        "ardon"
      ],
      [
        "ro",
        "ke"
      ],
      [
        "ĠA",
        "n"
      ],
      [
        "C",
        "l"
      ],
      [
        "G",
        "AR"
      ],
      [
        "N",
        "E"
      ],
      [
        "p",
        "ose"
      ],
      [
        "Ġb",
        "es"
      ],
      [
        "Ġb",
        "oy"
      ],
      [
        "Ġf",
        "ull"
      ],
      [
        "ar",
        "ry"
      ],
      [
        "Ġhe",
        "ard"
      ],
      [
        "Ġha",
        "pp"
      ],
      [
        "Ġde",
        "v"
      ],
      [
        "Ġj",
        "ust"
      ],
      [
        "Ġwr",
        "ong"
      ],
      [
        "Ġpres",
        "ent"
      ],
      [
        "ĠMAR",
        "GAR"
      ],
      [
        "ĠMARGAR",
        "ET"
      ],
      [
        "A",
        "TH"
      ],
      [
        "e",
        "el"
      ],
      [
        "Ġs",
        "ince"
      ],
      [
        "Ġm",
        "is"
      ],
      [
        "en",
        "s"
      ],
      [
        "Ġl",
        "and"
      ],
      [
        "Ġl",
        "ast"
      ],
      [
        "Ġe",
        "re"
      ],
      [
        "Ġst",
        "ate"
      ],
      [
        "Ġpl",
        "ace"
      ],
      [
        "MI",
        "L"
      ],
      [
        "b",
        "l"
      ],
      [
        "s",
        "and"
      ],
      [
        "Ġme",
        "et"
      ],
      [
        "Ġu",
        "nder"
      ],
      [
        "Ġk",
        "ill"
      ],
      [
        "Ġaf",
        "ter"
      ],
      [
        "H",
        "OR"
      ],
      [
        "c",
        "ent"
      ],
      [
        "Ġs",
        "orrow"
      ],
      [
        "it",
        "ion"
      ],
      [
        "Ġc",
        "are"
      ],
      [
        "Ġthou",
        "sand"
      ],
      [
        "est",
        "y"
      ],
      [
        "AN",
        "GE"
      ],
      [
        "OR",
        "D"
      ],
      [
        "Ġho",
        "ld"
      ],
      [
        "GR",
        "E"
      ],
      [
        "ANGE",
        "LO"
      ],
      [
        "C",
        "U"
      ],
      [
        "O",
        "ur"
      ],
      [
        "Ġhe",
        "lp"
      ],
      [
        "AR",
        "INA"
      ],
      [
        "are",
        "nce"
      ],
      [
        "Ġwh",
        "om"
      ],
      [
        "Ġfoll",
        "ow"
      ],
      [
        "K",
        "ATH"
      ],
      [
        "d",
        "ay"
      ],
      [
        "Ġf",
        "ar"
      ],
      [
        "Ġl",
        "ess"
      ],
      [
        "Ġh",
        "ither"
      ],
      [
        "ce",
        "ive"
      ],
      [
        "ir",
        "t"
      ],
      [
        "Ġwe",
        "ep"
      ],
      [
        "Ġsha",
        "me"
      ],
      [
        "sel",
        "ves"
      ],
      [
        "ci",
        "us"
      ],
      [
        "Ġen",
        "em"
      ],
      [
        "Ġab",
        "out"
      ],
      [
        "Ġey",
        "e"
      ],
      [
        "KATH",
        "ARINA"
      ],
      [
        "i",
        "ol"
      ],
      [
        "Ġf",
        "al"
      ],
      [
        "Ġf",
        "ool"
      ],
      [
        "on",
        "s"
      ],
      [
        "Ġp",
        "at"
      ],
      [
        "ur",
        "de"
      ],
      [
        "Ġsu",
        "n"
      ],
      [
        "Ġan",
        "swer"
      ],
      [
        "a",
        "ir"
      ],
      [
        "Ġc",
        "h"
      ],
      [
        "as",
        "ure"
      ],
      [
        "Ġfa",
        "ll"
      ],
      [
        "Ġma",
        "id"
      ],
      [
        "L",
        "US"
      ],
      [
        "U",
        "n"
      ],
      [
        "U",
        "p"
      ],
      [
        "ou",
        "nt"
      ],
      [
        "Ġb",
        "us"
      ],
      [
        "Ġc",
        "ousin"
      ],
      [
        "th",
        "y"
      ],
      [
        "ES",
        "CA"
      ],
      [
        "Ġhat",
        "e"
      ],
      [
        "Ġgra",
        "cious"
      ],
      [
        "Ġgentle",
        "man"
      ],
      [
        "ĠK",
        "ing"
      ],
      [
        "Ġgri",
        "ef"
      ],
      [
        "ESCA",
        "LUS"
      ],
      [
        "A",
        "n"
      ],
      [
        "j",
        "ect"
      ],
      [
        "o",
        "ve"
      ],
      [
        "Ġm",
        "akes"
      ],
      [
        "Ġin",
        "to"
      ],
      [
        "im",
        "es"
      ],
      [
        "Ġst",
        "ri"
      ],
      [
        "H",
        "ath"
      ],
      [
        "i",
        "v"
      ],
      [
        "i",
        "ld"
      ],
      [
        "Ġst",
        "re"
      ],
      [
        "ĠE",
        "ng"
      ],
      [
        "Ġwom",
        "an"
      ],
      [
        "D",
        "UCH"
      ],
      [
        "Ġt",
        "urn"
      ],
      [
        "Ġh",
        "um"
      ],
      [
        "Ġbe",
        "l"
      ],
      [
        "al",
        "t"
      ],
      [
        "Ġdo",
        "st"
      ],
      [
        "Ġcom",
        "fort"
      ],
      [
        "ic",
        "es"
      ],
      [
        "Ġcou",
        "n"
      ],
      [
        "ĠD",
        "uke"
      ],
      [
        "Ġcour",
        "t"
      ],
      [
        "Ġsle",
        "ep"
      ],
      [
        "urde",
        "rer"
      ],
      [
        "DUCH",
        "ESS"
      ],
      [
        "L",
        "ord"
      ],
      [
        "p",
        "her"
      ],
      [
        "Ġt",
        "alk"
      ],
      [
        "it",
        "or"
      ],
      [
        "Ġo",
        "ver"
      ],
      [
        "Ġbod",
        "y"
      ],
      [
        "m",
        "orrow"
      ],
      [
        "Ġw",
        "ilt"
      ],
      [
        "Ġb",
        "u"
      ],
      [
        "Ġg",
        "r"
      ],
      [
        "ut",
        "e"
      ],
      [
        "ge",
        "lo"
      ],
      [
        "de",
        "ed"
      ],
      [
        "ĠMar",
        "cius"
      ],
      [
        "I",
        "A"
      ],
      [
        "i",
        "ence"
      ],
      [
        "Ġ",
        "i"
      ],
      [
        "is",
        "ed"
      ],
      [
        "Ġbe",
        "d"
      ],
      [
        "Ġfa",
        "ult"
      ],
      [
        "Ġat",
        "t"
      ],
      [
        "ie",
        "ve"
      ],
      [
        "Ġpro",
        "ve"
      ],
      [
        "Ġpl",
        "ay"
      ],
      [
        "CA",
        "MIL"
      ],
      [
        "ĠCl",
        "arence"
      ],
      [
        "CAMIL",
        "LO"
      ],
      [
        "G",
        "od"
      ],
      [
        "e",
        "re"
      ],
      [
        "i",
        "ly"
      ],
      [
        "Ġs",
        "ound"
      ],
      [
        "Ġd",
        "ra"
      ],
      [
        "an",
        "s"
      ],
      [
        "om",
        "et"
      ],
      [
        "Ġin",
        "st"
      ],
      [
        "Ġwe",
        "l"
      ],
      [
        "ad",
        "e"
      ],
      [
        "Ġre",
        "t"
      ],
      [
        "Ġde",
        "ed"
      ],
      [
        "Ġthan",
        "k"
      ],
      [
        "T",
        "EN"
      ],
      [
        "Ġs",
        "er"
      ],
      [
        "Ġb",
        "o"
      ],
      [
        "Ġf",
        "ight"
      ],
      [
        "Ġin",
        "deed"
      ],
      [
        "ill",
        "ain"
      ],
      [
        "ho",
        "ld"
      ],
      [
        "Ġv",
        "o"
      ],
      [
        "Ġsw",
        "ord"
      ],
      [
        "ĠAn",
        "gelo"
      ],
      [
        "HOR",
        "TEN"
      ],
      [
        "Ġfal",
        "se"
      ],
      [
        "HORTEN",
        "S"
      ],
      [
        "F",
        "RI"
      ],
      [
        "S",
        "h"
      ],
      [
        "Ġu",
        "se"
      ],
      [
        "Ġe",
        "ven"
      ],
      [
        "Ġso",
        "vere"
      ],
      [
        "Ġan",
        "other"
      ],
      [
        "Ġgra",
        "ve"
      ],
      [
        "Ġad",
        "v"
      ],
      [
        "Pro",
        "vost"
      ],
      [
        "Ġfell",
        "ow"
      ],
      [
        "Up",
        "on"
      ],
      [
        "HORTENS",
        "IO"
      ],
      [
        "FRI",
        "AR"
      ],
      [
        ",",
        "'"
      ],
      [
        "P",
        "TIS"
      ],
      [
        "e",
        "al"
      ],
      [
        "Ġc",
        "ur"
      ],
      [
        "Ġha",
        "s"
      ],
      [
        "Ġe",
        "m"
      ],
      [
        "ur",
        "y"
      ],
      [
        "pe",
        "ct"
      ],
      [
        "BA",
        "PTIS"
      ],
      [
        "Ġban",
        "ish"
      ],
      [
        "Ġfort",
        "une"
      ],
      [
        "BAPTIS",
        "TA"
      ],
      [
        "C",
        "US"
      ],
      [
        "C",
        "OM"
      ],
      [
        "T",
        "OL"
      ],
      [
        "Y",
        "CUS"
      ],
      [
        "p",
        "l"
      ],
      [
        "p",
        "en"
      ],
      [
        "ou",
        "ch"
      ],
      [
        "Ġm",
        "erc"
      ],
      [
        "Ġm",
        "atter"
      ],
      [
        "Ġw",
        "ant"
      ],
      [
        "Ġre",
        "ven"
      ],
      [
        "Ġas",
        "s"
      ],
      [
        "Ġse",
        "nd"
      ],
      [
        "Ġpr",
        "ison"
      ],
      [
        "fe",
        "ct"
      ],
      [
        "AU",
        "TOL"
      ],
      [
        "Ġr",
        "ather"
      ],
      [
        "Ġcount",
        "ry"
      ],
      [
        "Ġdou",
        "bt"
      ],
      [
        "COM",
        "INIUS"
      ],
      [
        "AUTOL",
        "YCUS"
      ],
      [
        ".",
        "'"
      ],
      [
        "A",
        "re"
      ],
      [
        "E",
        "ven"
      ],
      [
        "M",
        "ore"
      ],
      [
        "Ġw",
        "ish"
      ],
      [
        "Ġy",
        "ears"
      ],
      [
        "Ġre",
        "ason"
      ],
      [
        "Ġli",
        "es"
      ],
      [
        "Ġon",
        "ly"
      ],
      [
        "AR",
        "ENCE"
      ],
      [
        "Th",
        "ird"
      ],
      [
        "Ġv",
        "irt"
      ],
      [
        "Ġtr",
        "uth"
      ],
      [
        "W",
        "ould"
      ],
      [
        "i",
        "or"
      ],
      [
        "m",
        "s"
      ],
      [
        "o",
        "f"
      ],
      [
        "r",
        "ance"
      ],
      [
        "Ġ",
        "But"
      ],
      [
        "Ġd",
        "an"
      ],
      [
        "Ġp",
        "ers"
      ],
      [
        "an",
        "y"
      ],
      [
        "Ġbre",
        "ath"
      ],
      [
        "Ġarm",
        "s"
      ],
      [
        "Ġdre",
        "am"
      ],
      [
        "CL",
        "ARENCE"
      ],
      [
        "pher",
        "d"
      ],
      [
        "B",
        "EN"
      ],
      [
        "M",
        "AR"
      ],
      [
        "N",
        "OR"
      ],
      [
        "d",
        "d"
      ],
      [
        "d",
        "er"
      ],
      [
        "Ġs",
        "ent"
      ],
      [
        "en",
        "er"
      ],
      [
        "Ġg",
        "i"
      ],
      [
        "Ġst",
        "ra"
      ],
      [
        "Ġsha",
        "lt"
      ],
      [
        "Ġdis",
        "c"
      ],
      [
        "VOL",
        "IO"
      ],
      [
        "Cl",
        "own"
      ],
      [
        "Ġbus",
        "iness"
      ],
      [
        "BEN",
        "VOLIO"
      ],
      [
        "A",
        "l"
      ],
      [
        "A",
        "t"
      ],
      [
        "P",
        "RO"
      ],
      [
        "S",
        "PER"
      ],
      [
        "b",
        "y"
      ],
      [
        "he",
        "d"
      ],
      [
        "Ġs",
        "en"
      ],
      [
        "Ġp",
        "rom"
      ],
      [
        "Ġho",
        "ly"
      ],
      [
        "Ġen",
        "ough"
      ],
      [
        "erv",
        "ing"
      ],
      [
        "Ġcomm",
        "and"
      ],
      [
        "UM",
        "IO"
      ],
      [
        "GR",
        "UMIO"
      ],
      [
        "PRO",
        "SPER"
      ],
      [
        "PROSPER",
        "O"
      ],
      [
        "i",
        "a"
      ],
      [
        "k",
        "en"
      ],
      [
        "Ġs",
        "ea"
      ],
      [
        "Ġw",
        "ind"
      ],
      [
        "it",
        "t"
      ],
      [
        "Ġc",
        "ra"
      ],
      [
        "Ġl",
        "ay"
      ],
      [
        "ar",
        "s"
      ],
      [
        "Ġp",
        "ity"
      ],
      [
        "at",
        "or"
      ],
      [
        "Ġbe",
        "a"
      ],
      [
        "Ġha",
        "ng"
      ],
      [
        "Ġst",
        "ran"
      ],
      [
        "Ġso",
        "ld"
      ],
      [
        "Ġsp",
        "ir"
      ],
      [
        "Ġfa",
        "re"
      ],
      [
        "Ġpr",
        "oud"
      ],
      [
        "ĠM",
        "urderer"
      ],
      [
        "Ġsw",
        "ear"
      ],
      [
        "Ġcont",
        "ent"
      ],
      [
        "MER",
        "CU"
      ],
      [
        "MERCU",
        "TIO"
      ],
      [
        "i",
        "ke"
      ],
      [
        "Ġd",
        "are"
      ],
      [
        "et",
        "er"
      ],
      [
        "Ġli",
        "ves"
      ],
      [
        "Ġde",
        "p"
      ],
      [
        "Ġse",
        "c"
      ],
      [
        "Ġv",
        "illain"
      ],
      [
        "gain",
        "st"
      ],
      [
        "ĠK",
        "ate"
      ],
      [
        "LUC",
        "ENTIO"
      ],
      [
        "Ġrem",
        "em"
      ],
      [
        "Ġnat",
        "ure"
      ],
      [
        "Ġwel",
        "come"
      ],
      [
        "P",
        "OM"
      ],
      [
        "T",
        "w"
      ],
      [
        "c",
        "om"
      ],
      [
        "u",
        "nt"
      ],
      [
        "Ġt",
        "end"
      ],
      [
        "ha",
        "m"
      ],
      [
        "Ġf",
        "ree"
      ],
      [
        "Ġg",
        "re"
      ],
      [
        "Ġg",
        "et"
      ],
      [
        "Ġin",
        "t"
      ],
      [
        "Ġwith",
        "in"
      ],
      [
        "Ġk",
        "iss"
      ],
      [
        "est",
        "er"
      ],
      [
        "ĠC",
        "ome"
      ],
      [
        "Ġgo",
        "ds"
      ],
      [
        "Ġsa",
        "w"
      ],
      [
        "Ġmad",
        "am"
      ],
      [
        "LAN",
        "D"
      ],
      [
        "Ġhapp",
        "y"
      ],
      [
        "Ġsovere",
        "ign"
      ],
      [
        "POM",
        "P"
      ],
      [
        "L",
        "INA"
      ],
      [
        "P",
        "AU"
      ],
      [
        "a",
        "pt"
      ],
      [
        "Ġs",
        "erv"
      ],
      [
        "Ġs",
        "ister"
      ],
      [
        "Ġs",
        "omet"
      ],
      [
        "ha",
        "l"
      ],
      [
        "Ġf",
        "oul"
      ],
      [
        "Ġc",
        "ity"
      ],
      [
        "ver",
        "s"
      ],
      [
        "We",
        "re"
      ],
      [
        "Ġbes",
        "eech"
      ],
      [
        "PAU",
        "LINA"
      ],
      [
        "Y",
        "ORK"
      ],
      [
        "i",
        "ent"
      ],
      [
        "u",
        "se"
      ],
      [
        "er",
        "y"
      ],
      [
        "Ġd",
        "en"
      ],
      [
        "Ġy",
        "ield"
      ],
      [
        "Ġth",
        "ree"
      ],
      [
        "Ġo",
        "ath"
      ],
      [
        "Ġyour",
        "s"
      ],
      [
        "ond",
        "er"
      ],
      [
        "ag",
        "ue"
      ],
      [
        "Ġbre",
        "ak"
      ],
      [
        "Ġmean",
        "s"
      ],
      [
        "Ġsub",
        "ject"
      ],
      [
        "get",
        "her"
      ],
      [
        "GRE",
        "MIO"
      ],
      [
        "POMP",
        "EY"
      ],
      [
        "N",
        "IA"
      ],
      [
        "O",
        "LI"
      ],
      [
        "P",
        "OLI"
      ],
      [
        "X",
        "EN"
      ],
      [
        "b",
        "alt"
      ],
      [
        "y",
        "balt"
      ],
      [
        "Ġ",
        "Nor"
      ],
      [
        "Ġa",
        "w"
      ],
      [
        "Ġm",
        "er"
      ],
      [
        "Ġw",
        "hile"
      ],
      [
        "Ġb",
        "orn"
      ],
      [
        "Ġth",
        "ings"
      ],
      [
        "Ġh",
        "orse"
      ],
      [
        "an",
        "c"
      ],
      [
        "us",
        "ic"
      ],
      [
        "AN",
        "T"
      ],
      [
        "Ġblood",
        "y"
      ],
      [
        "Ġlook",
        "s"
      ],
      [
        "ef",
        "t"
      ],
      [
        "UM",
        "NIA"
      ],
      [
        "li",
        "ke"
      ],
      [
        "che",
        "s"
      ],
      [
        "VOL",
        "UMNIA"
      ],
      [
        "POLI",
        "XEN"
      ],
      [
        "POLIXEN",
        "ES"
      ],
      [
        "G",
        "ON"
      ],
      [
        "H",
        "er"
      ],
      [
        "r",
        "ong"
      ],
      [
        "u",
        "p"
      ],
      [
        "u",
        "es"
      ],
      [
        "Ġt",
        "em"
      ],
      [
        "Ġw",
        "in"
      ],
      [
        "Ġw",
        "ound"
      ],
      [
        "Ġf",
        "ire"
      ],
      [
        "en",
        "ger"
      ],
      [
        "Ġyour",
        "self"
      ],
      [
        "Ġsu",
        "pp"
      ],
      [
        "Ġsp",
        "o"
      ],
      [
        "Ġfa",
        "ith"
      ],
      [
        "ING",
        "S"
      ],
      [
        "ĠS",
        "erving"
      ],
      [
        "Ġma",
        "j"
      ],
      [
        "ST",
        "INGS"
      ],
      [
        "Ġtra",
        "itor"
      ],
      [
        "cent",
        "io"
      ],
      [
        "ĠServing",
        "man"
      ],
      [
        "R",
        "ENCE"
      ],
      [
        "S",
        "ay"
      ],
      [
        "b",
        "s"
      ],
      [
        "b",
        "roke"
      ],
      [
        "re",
        "m"
      ],
      [
        "Ġd",
        "ru"
      ],
      [
        "Ġl",
        "am"
      ],
      [
        "ess",
        "enger"
      ],
      [
        "ĠL",
        "AU"
      ],
      [
        "Ġmar",
        "k"
      ],
      [
        "Ġcomm",
        "on"
      ],
      [
        "HA",
        "STINGS"
      ],
      [
        "Ġchild",
        "ren"
      ],
      [
        "ert",
        "ain"
      ],
      [
        "Ġmist",
        "ress"
      ],
      [
        "ĠLAU",
        "RENCE"
      ],
      [
        "B",
        "Y"
      ],
      [
        "B",
        "ER"
      ],
      [
        "Ġc",
        "ond"
      ],
      [
        "Ġbe",
        "at"
      ],
      [
        "Ġre",
        "qu"
      ],
      [
        "Ġde",
        "f"
      ],
      [
        "Ġv",
        "al"
      ],
      [
        "Ġun",
        "cle"
      ],
      [
        "There",
        "fore"
      ],
      [
        "for",
        "m"
      ],
      [
        "Ġmaj",
        "esty"
      ],
      [
        "C",
        "LI"
      ],
      [
        "F",
        "F"
      ],
      [
        "L",
        "ook"
      ],
      [
        "W",
        "as"
      ],
      [
        "Ġa",
        "ff"
      ],
      [
        "Ġs",
        "in"
      ],
      [
        "Ġm",
        "et"
      ],
      [
        "Ġl",
        "ate"
      ],
      [
        "Ġl",
        "eft"
      ],
      [
        "Ġto",
        "ld"
      ],
      [
        "Ġso",
        "on"
      ],
      [
        "Ġse",
        "en"
      ],
      [
        "Ġsa",
        "ve"
      ],
      [
        "Ġday",
        "s"
      ],
      [
        "UM",
        "BER"
      ],
      [
        "TH",
        "UMBER"
      ],
      [
        "Ġwo",
        "e"
      ],
      [
        "ĠEng",
        "land"
      ],
      [
        "NOR",
        "THUMBER"
      ],
      [
        "Ġtend",
        "er"
      ],
      [
        "CLI",
        "FF"
      ],
      [
        "NORTHUMBER",
        "LAND"
      ],
      [
        "I",
        "D"
      ],
      [
        "T",
        "ake"
      ],
      [
        "b",
        "ed"
      ],
      [
        "e",
        "ver"
      ],
      [
        "r",
        "ing"
      ],
      [
        "t",
        "en"
      ],
      [
        "Ġs",
        "ight"
      ],
      [
        "Ġm",
        "on"
      ],
      [
        "Ġg",
        "ener"
      ],
      [
        "id",
        "es"
      ],
      [
        "id",
        "ow"
      ],
      [
        "Ġdo",
        "es"
      ],
      [
        "Thou",
        "gh"
      ],
      [
        "Ġret",
        "urn"
      ],
      [
        "Ġmerc",
        "y"
      ],
      [
        "Ġfare",
        "well"
      ],
      [
        "a",
        "c"
      ],
      [
        "d",
        "om"
      ],
      [
        "m",
        "p"
      ],
      [
        "Ġ",
        "AN"
      ],
      [
        "he",
        "s"
      ],
      [
        "Ġs",
        "it"
      ],
      [
        "Ġs",
        "ad"
      ],
      [
        "re",
        "l"
      ],
      [
        "Ġde",
        "ep"
      ],
      [
        "ter",
        "s"
      ],
      [
        "Ġgo",
        "ld"
      ],
      [
        "un",
        "es"
      ],
      [
        "Ġmar",
        "ry"
      ],
      [
        "Ġhea",
        "vy"
      ],
      [
        "Ġfo",
        "ot"
      ],
      [
        "Ġwar",
        "rant"
      ],
      [
        "ĠJ",
        "ul"
      ],
      [
        "Ġpur",
        "pose"
      ],
      [
        "Ġthr",
        "ough"
      ],
      [
        "Ġdan",
        "ger"
      ],
      [
        "ĠAN",
        "NE"
      ],
      [
        "A",
        "h"
      ],
      [
        "D",
        "id"
      ],
      [
        "G",
        "ive"
      ],
      [
        "P",
        "R"
      ],
      [
        "a",
        "im"
      ],
      [
        "i",
        "ct"
      ],
      [
        "m",
        "er"
      ],
      [
        "s",
        "o"
      ],
      [
        "u",
        "nd"
      ],
      [
        "v",
        "ent"
      ],
      [
        "Ġ",
        "ill"
      ],
      [
        "Ġc",
        "ho"
      ],
      [
        "Ġc",
        "old"
      ],
      [
        "Ġn",
        "urse"
      ],
      [
        "Ġto",
        "gether"
      ],
      [
        "Ġg",
        "row"
      ],
      [
        "our",
        "s"
      ],
      [
        "if",
        "ford"
      ],
      [
        "Ġsu",
        "re"
      ],
      [
        "ear",
        "n"
      ],
      [
        "CA",
        "PULET"
      ],
      [
        "ign",
        "ior"
      ],
      [
        "INC",
        "E"
      ],
      [
        "Ġdes",
        "er"
      ],
      [
        "ment",
        "s"
      ],
      [
        "PR",
        "INCE"
      ],
      [
        "a",
        "z"
      ],
      [
        "a",
        "id"
      ],
      [
        "c",
        "a"
      ],
      [
        "o",
        "int"
      ],
      [
        "Ġt",
        "imes"
      ],
      [
        "or",
        "iol"
      ],
      [
        "ing",
        "broke"
      ],
      [
        "ce",
        "ed"
      ],
      [
        "Ġwith",
        "out"
      ],
      [
        "ent",
        "y"
      ],
      [
        "Ġas",
        "k"
      ],
      [
        "ro",
        "ss"
      ],
      [
        "us",
        "h"
      ],
      [
        "Ġlo",
        "st"
      ],
      [
        "are",
        "well"
      ],
      [
        "ol",
        "ingbroke"
      ],
      [
        "Ġpl",
        "uck"
      ],
      [
        "Ġrep",
        "ort"
      ],
      [
        "Ġlie",
        "ge"
      ],
      [
        "Ġbel",
        "ieve"
      ],
      [
        "Ġspir",
        "it"
      ],
      [
        "l",
        "ing"
      ],
      [
        "s",
        "h"
      ],
      [
        "x",
        "t"
      ],
      [
        "Ġa",
        "ir"
      ],
      [
        "Ġa",
        "ge"
      ],
      [
        "ou",
        "th"
      ],
      [
        "Ġw",
        "at"
      ],
      [
        "Ġhe",
        "ir"
      ],
      [
        "et",
        "s"
      ],
      [
        "ain",
        "s"
      ],
      [
        "Ġthy",
        "self"
      ],
      [
        "if",
        "t"
      ],
      [
        "Ġlo",
        "ss"
      ],
      [
        "ĠM",
        "ont"
      ],
      [
        "Ġsay",
        "s"
      ],
      [
        "ĠB",
        "olingbroke"
      ],
      [
        "Who",
        "se"
      ],
      [
        "On",
        "e"
      ],
      [
        "Ġstran",
        "ge"
      ],
      [
        "A",
        "LO"
      ],
      [
        "H",
        "ad"
      ],
      [
        "i",
        "al"
      ],
      [
        "n",
        "o"
      ],
      [
        "n",
        "er"
      ],
      [
        "Ġb",
        "at"
      ],
      [
        "Ġc",
        "ry"
      ],
      [
        "Ġl",
        "earn"
      ],
      [
        "ce",
        "d"
      ],
      [
        "Ġsu",
        "ff"
      ],
      [
        "ak",
        "ing"
      ],
      [
        "Ġear",
        "s"
      ],
      [
        "Ġhast",
        "e"
      ],
      [
        "ĠCl",
        "ifford"
      ],
      [
        "Ġent",
        "reat"
      ],
      [
        "Ġdev",
        "il"
      ],
      [
        "Ġgr",
        "ound"
      ],
      [
        "Sh",
        "ould"
      ],
      [
        "Ġpers",
        "on"
      ],
      [
        "ĠJul",
        "iet"
      ],
      [
        "L",
        "ike"
      ],
      [
        "W",
        "h"
      ],
      [
        "g",
        "es"
      ],
      [
        "n",
        "ight"
      ],
      [
        "Ġm",
        "ur"
      ],
      [
        "in",
        "ed"
      ],
      [
        "Ġf",
        "ly"
      ],
      [
        "Ġto",
        "ward"
      ],
      [
        "Ġp",
        "ast"
      ],
      [
        "om",
        "an"
      ],
      [
        "le",
        "t"
      ],
      [
        "Ġfa",
        "st"
      ],
      [
        "Ġv",
        "is"
      ],
      [
        "au",
        "d"
      ],
      [
        "ĠL",
        "u"
      ],
      [
        "Ġpo",
        "int"
      ],
      [
        "Ġfri",
        "ar"
      ],
      [
        "Ġdis",
        "p"
      ],
      [
        "Ġsl",
        "ain"
      ],
      [
        "Ġbet",
        "w"
      ],
      [
        "ĠF",
        "rance"
      ],
      [
        "ix",
        "t"
      ],
      [
        "Ġjust",
        "ice"
      ],
      [
        "Ġstra",
        "ight"
      ],
      [
        "Ġremem",
        "ber"
      ],
      [
        "A",
        "PULET"
      ],
      [
        "F",
        "L"
      ],
      [
        "F",
        "ID"
      ],
      [
        "I",
        "Z"
      ],
      [
        "M",
        "ay"
      ],
      [
        "S",
        "ome"
      ],
      [
        "Ġ",
        "ord"
      ],
      [
        "Ġs",
        "il"
      ],
      [
        "in",
        "a"
      ],
      [
        "Ġb",
        "old"
      ],
      [
        "Ġc",
        "urse"
      ],
      [
        "Ġn",
        "ear"
      ],
      [
        "ut",
        "ion"
      ],
      [
        "Ġst",
        "rong"
      ],
      [
        "The",
        "se"
      ],
      [
        "ĠC",
        "APULET"
      ],
      [
        "OR",
        "IZ"
      ],
      [
        "Ġwor",
        "thy"
      ],
      [
        "Ġqu",
        "ick"
      ],
      [
        "AU",
        "FID"
      ],
      [
        "entle",
        "man"
      ],
      [
        "Ġtru",
        "st"
      ],
      [
        "Ġal",
        "one"
      ],
      [
        "Ġdes",
        "ire"
      ],
      [
        "Ġinst",
        "ru"
      ],
      [
        "Ġbea",
        "uty"
      ],
      [
        "Ġserv",
        "ice"
      ],
      [
        "FL",
        "ORIZ"
      ],
      [
        "AUFID",
        "IUS"
      ],
      [
        "FLORIZ",
        "EL"
      ],
      [
        "C",
        "an"
      ],
      [
        "S",
        "E"
      ],
      [
        "T",
        "ell"
      ],
      [
        "V",
        "ER"
      ],
      [
        "g",
        "s"
      ],
      [
        "n",
        "ing"
      ],
      [
        "s",
        "hip"
      ],
      [
        "w",
        "ith"
      ],
      [
        "Ġt",
        "ouch"
      ],
      [
        "Ġf",
        "ound"
      ],
      [
        "it",
        "he"
      ],
      [
        "ĠI",
        "s"
      ],
      [
        "ad",
        "am"
      ],
      [
        "Ġre",
        "ady"
      ],
      [
        "IO",
        "N"
      ],
      [
        "Ġbr",
        "ought"
      ],
      [
        "ure",
        "d"
      ],
      [
        "Ġpo",
        "ss"
      ],
      [
        "ĠT",
        "ybalt"
      ],
      [
        "Ġru",
        "n"
      ],
      [
        "Ġhar",
        "d"
      ],
      [
        "Ġenem",
        "y"
      ],
      [
        "Ġreven",
        "ge"
      ],
      [
        "Ġgener",
        "al"
      ],
      [
        "aud",
        "io"
      ],
      [
        "!",
        "'"
      ],
      [
        "H",
        "a"
      ],
      [
        "i",
        "ble"
      ],
      [
        "v",
        "o"
      ],
      [
        "Ġ",
        "Here"
      ],
      [
        "Ġw",
        "oo"
      ],
      [
        "Ġd",
        "uty"
      ],
      [
        "en",
        "ator"
      ],
      [
        "Ġg",
        "rant"
      ],
      [
        "Ġin",
        "f"
      ],
      [
        "ce",
        "pt"
      ],
      [
        "Ġit",
        "self"
      ],
      [
        "am",
        "ill"
      ],
      [
        "Ġlo",
        "se"
      ],
      [
        "au",
        "nt"
      ],
      [
        "Ġknow",
        "s"
      ],
      [
        "Ġcan",
        "st"
      ],
      [
        "ĠS",
        "enator"
      ],
      [
        "ink",
        "s"
      ],
      [
        "um",
        "ber"
      ],
      [
        "Ġmar",
        "ried"
      ],
      [
        "Ġthought",
        "s"
      ],
      [
        "Ġchar",
        "ge"
      ],
      [
        "A",
        "gainst"
      ],
      [
        "B",
        "ec"
      ],
      [
        "C",
        "IUS"
      ],
      [
        "R",
        "ICHARD"
      ],
      [
        "S",
        "p"
      ],
      [
        "c",
        "ester"
      ],
      [
        "e",
        "ep"
      ],
      [
        "g",
        "u"
      ],
      [
        "l",
        "ou"
      ],
      [
        "s",
        "ue"
      ],
      [
        "u",
        "a"
      ],
      [
        "Ġ",
        "You"
      ],
      [
        "Ġm",
        "orn"
      ],
      [
        "Ġwe",
        "ar"
      ],
      [
        "ri",
        "age"
      ],
      [
        "Ġre",
        "ad"
      ],
      [
        "Ġde",
        "li"
      ],
      [
        "Ġsp",
        "eed"
      ],
      [
        "Ġqu",
        "ar"
      ],
      [
        "Ġpro",
        "f"
      ],
      [
        "Ġtw",
        "enty"
      ],
      [
        "Ġstand",
        "s"
      ],
      [
        "BA",
        "ST"
      ],
      [
        "She",
        "pherd"
      ],
      [
        "che",
        "d"
      ],
      [
        "Ġhour",
        "s"
      ],
      [
        "Ġconf",
        "ess"
      ],
      [
        "Ġstre",
        "ng"
      ],
      [
        "SE",
        "BAST"
      ],
      [
        "ithe",
        "e"
      ],
      [
        "SEBAST",
        "IAN"
      ],
      [
        "O",
        "W"
      ],
      [
        "c",
        "ess"
      ],
      [
        "Ġ",
        "N"
      ],
      [
        "Ġm",
        "ock"
      ],
      [
        "Ġf",
        "ur"
      ],
      [
        "Ġf",
        "ore"
      ],
      [
        "Ġf",
        "ield"
      ],
      [
        "on",
        "es"
      ],
      [
        "Ġd",
        "iv"
      ],
      [
        "Ġc",
        "ar"
      ],
      [
        "Ġyou",
        "th"
      ],
      [
        "Ġp",
        "ost"
      ],
      [
        "Ġhe",
        "ll"
      ],
      [
        "ing",
        "ham"
      ],
      [
        "Ġha",
        "lf"
      ],
      [
        "oo",
        "p"
      ],
      [
        "Th",
        "us"
      ],
      [
        "ĠR",
        "i"
      ],
      [
        "ol",
        "k"
      ],
      [
        "fe",
        "ction"
      ],
      [
        "ĠH",
        "ast"
      ],
      [
        "Ġj",
        "ud"
      ],
      [
        "um",
        "p"
      ],
      [
        "Ġex",
        "ec"
      ],
      [
        "Ġfear",
        "ful"
      ],
      [
        "Ġcoun",
        "sel"
      ],
      [
        "amill",
        "o"
      ],
      [
        "B",
        "ION"
      ],
      [
        "C",
        "om"
      ],
      [
        "D",
        "EL"
      ],
      [
        "T",
        "ill"
      ],
      [
        "m",
        "ost"
      ],
      [
        "p",
        "are"
      ],
      [
        "Ġt",
        "er"
      ],
      [
        "Ġm",
        "in"
      ],
      [
        "Ġw",
        "ret"
      ],
      [
        "Ġb",
        "os"
      ],
      [
        "Ġp",
        "ar"
      ],
      [
        "Ġbe",
        "hold"
      ],
      [
        "Ġin",
        "c"
      ],
      [
        "Ġe",
        "ach"
      ],
      [
        "ad",
        "s"
      ],
      [
        "Ġre",
        "c"
      ],
      [
        "Ġde",
        "l"
      ],
      [
        "ĠC",
        "oriol"
      ],
      [
        "ol",
        "s"
      ],
      [
        "Ġwor",
        "k"
      ],
      [
        "ort",
        "al"
      ],
      [
        "Ġheart",
        "s"
      ],
      [
        "Ġmar",
        "riage"
      ],
      [
        "Ġdes",
        "p"
      ],
      [
        "ĠCl",
        "audio"
      ],
      [
        "itizen",
        "s"
      ],
      [
        "uck",
        "ingham"
      ],
      [
        "Ġres",
        "ol"
      ],
      [
        "MAR",
        "CIUS"
      ],
      [
        "ĠMont",
        "ague"
      ],
      [
        "lou",
        "cester"
      ],
      [
        "BION",
        "DEL"
      ],
      [
        "Ġbos",
        "om"
      ],
      [
        "BIONDEL",
        "LO"
      ],
      [
        "A",
        "way"
      ],
      [
        "M",
        "ON"
      ],
      [
        "M",
        "adam"
      ],
      [
        "b",
        "ly"
      ],
      [
        "f",
        "olk"
      ],
      [
        "i",
        "ers"
      ],
      [
        "n",
        "ow"
      ],
      [
        "Ġ",
        "The"
      ],
      [
        "Ġt",
        "it"
      ],
      [
        "Ġt",
        "en"
      ],
      [
        "Ġt",
        "ale"
      ],
      [
        "Ġb",
        "ound"
      ],
      [
        "Ġd",
        "am"
      ],
      [
        "Ġc",
        "ut"
      ],
      [
        "en",
        "ch"
      ],
      [
        "Ġy",
        "e"
      ],
      [
        "Ġo",
        "pen"
      ],
      [
        "ra",
        "h"
      ],
      [
        "al",
        "m"
      ],
      [
        "ĠC",
        "ap"
      ],
      [
        "Ġsh",
        "ort"
      ],
      [
        "Ġknow",
        "n"
      ],
      [
        "ĠB",
        "uckingham"
      ],
      [
        "Ġsee",
        "k"
      ],
      [
        "Ġhar",
        "m"
      ],
      [
        "Ġcomp",
        "any"
      ],
      [
        "Ġgu",
        "ilt"
      ],
      [
        "Ġhigh",
        "ness"
      ],
      [
        "Ġstri",
        "ke"
      ],
      [
        "Ġatt",
        "end"
      ],
      [
        "Ġser",
        "ve"
      ],
      [
        "Ġmur",
        "der"
      ],
      [
        "ĠHast",
        "ings"
      ],
      [
        "F",
        "arewell"
      ],
      [
        "H",
        "ER"
      ],
      [
        "O",
        "P"
      ],
      [
        "c",
        "han"
      ],
      [
        "h",
        "ood"
      ],
      [
        "Ġ",
        "ve"
      ],
      [
        "Ġ",
        "He"
      ],
      [
        "Ġ",
        "AU"
      ],
      [
        "Ġa",
        "g"
      ],
      [
        "Ġs",
        "at"
      ],
      [
        "Ġs",
        "ide"
      ],
      [
        "Ġw",
        "hi"
      ],
      [
        "Ġw",
        "atch"
      ],
      [
        "re",
        "st"
      ],
      [
        "is",
        "hed"
      ],
      [
        "Ġf",
        "eel"
      ],
      [
        "Ġd",
        "ish"
      ],
      [
        "Ġd",
        "ist"
      ],
      [
        "ent",
        "s"
      ],
      [
        "and",
        "er"
      ],
      [
        "Ġsu",
        "it"
      ],
      [
        "Ġlo",
        "ving"
      ],
      [
        "ON",
        "IO"
      ],
      [
        "Ġhon",
        "est"
      ],
      [
        "Ġheaven",
        "s"
      ],
      [
        "Ġtri",
        "b"
      ],
      [
        "MER",
        "LE"
      ],
      [
        "Ġdra",
        "w"
      ],
      [
        "Ġvo",
        "ices"
      ],
      [
        "Ġsomet",
        "hing"
      ],
      [
        "ANT",
        "ONIO"
      ],
      [
        "Ġstreng",
        "th"
      ],
      [
        "ĠAU",
        "MERLE"
      ],
      [
        "M",
        "arry"
      ],
      [
        "P",
        "ray"
      ],
      [
        "S",
        "ee"
      ],
      [
        "Z",
        "ALO"
      ],
      [
        "f",
        "id"
      ],
      [
        "g",
        "ing"
      ],
      [
        "Ġa",
        "ct"
      ],
      [
        "Ġs",
        "ake"
      ],
      [
        "Ġw",
        "ast"
      ],
      [
        "Ġw",
        "onder"
      ],
      [
        "Ġw",
        "idow"
      ],
      [
        "Ġb",
        "it"
      ],
      [
        "Ġc",
        "or"
      ],
      [
        "Ġst",
        "o"
      ],
      [
        "Ġst",
        "ir"
      ],
      [
        "ĠG",
        "entleman"
      ],
      [
        "ĠG",
        "loucester"
      ],
      [
        "ĠL",
        "anc"
      ],
      [
        "Ġdid",
        "st"
      ],
      [
        "Ġgentle",
        "men"
      ],
      [
        "Ġcl",
        "oud"
      ],
      [
        "Ġwom",
        "en"
      ],
      [
        "eth",
        "inks"
      ],
      [
        "Ġenem",
        "ies"
      ],
      [
        "GON",
        "ZALO"
      ],
      [
        "ĠLanc",
        "aster"
      ],
      [
        "U",
        "nt"
      ],
      [
        "i",
        "ves"
      ],
      [
        "s",
        "u"
      ],
      [
        "Ġs",
        "ing"
      ],
      [
        "Ġm",
        "usic"
      ],
      [
        "re",
        "w"
      ],
      [
        "Ġb",
        "reat"
      ],
      [
        "Ġd",
        "r"
      ],
      [
        "Ġp",
        "ra"
      ],
      [
        "Ġp",
        "ie"
      ],
      [
        "Ġp",
        "ale"
      ],
      [
        "Ġg",
        "ates"
      ],
      [
        "oo",
        "se"
      ],
      [
        "ra",
        "ce"
      ],
      [
        "il",
        "s"
      ],
      [
        "ĠC",
        "amillo"
      ],
      [
        "Ġne",
        "xt"
      ],
      [
        "Ġkn",
        "ew"
      ],
      [
        "Ġcom",
        "ing"
      ],
      [
        "Ġthan",
        "ks"
      ],
      [
        "Ġcl",
        "ose"
      ],
      [
        "Ġple",
        "asure"
      ],
      [
        "Ġsoul",
        "s"
      ],
      [
        "ian",
        "ca"
      ],
      [
        "Ġcour",
        "se"
      ],
      [
        "Ġent",
        "er"
      ],
      [
        "Ġwit",
        "hal"
      ],
      [
        "Ġbra",
        "ve"
      ],
      [
        "Ġche",
        "e"
      ],
      [
        "ceive",
        "d"
      ],
      [
        "Ġtit",
        "le"
      ],
      [
        "D",
        "IO"
      ],
      [
        "f",
        "ter"
      ],
      [
        "n",
        "e"
      ],
      [
        "v",
        "our"
      ],
      [
        "y",
        "ou"
      ],
      [
        "Ġt",
        "y"
      ],
      [
        "Ġw",
        "a"
      ],
      [
        "Ġb",
        "ur"
      ],
      [
        "Ġf",
        "it"
      ],
      [
        "ow",
        "ard"
      ],
      [
        "Ġg",
        "ar"
      ],
      [
        "Ġbe",
        "come"
      ],
      [
        "et",
        "ch"
      ],
      [
        "et",
        "ru"
      ],
      [
        "Ġfor",
        "g"
      ],
      [
        "Ġwe",
        "ak"
      ],
      [
        "Ġe",
        "ither"
      ],
      [
        "Ġli",
        "ps"
      ],
      [
        "ru",
        "st"
      ],
      [
        "el",
        "s"
      ],
      [
        "Ġj",
        "est"
      ],
      [
        "Ġpl",
        "ain"
      ],
      [
        "AU",
        "DIO"
      ],
      [
        "Ġab",
        "s"
      ],
      [
        "Ġpre",
        "t"
      ],
      [
        "cl",
        "aim"
      ],
      [
        "Ġgri",
        "e"
      ],
      [
        "CL",
        "AUDIO"
      ],
      [
        "Ġchan",
        "ge"
      ],
      [
        "MIO",
        "NE"
      ],
      [
        "ĠNor",
        "folk"
      ],
      [
        "CLIFF",
        "ORD"
      ],
      [
        "Ġsuff",
        "er"
      ],
      [
        "Ġdeli",
        "ver"
      ],
      [
        "HER",
        "MIONE"
      ],
      [
        "D",
        "A"
      ],
      [
        "E",
        "DWARD"
      ],
      [
        "L",
        "ORD"
      ],
      [
        "M",
        "ost"
      ],
      [
        "c",
        "her"
      ],
      [
        "k",
        "es"
      ],
      [
        "s",
        "es"
      ],
      [
        "u",
        "fid"
      ],
      [
        "Ġ",
        "Th"
      ],
      [
        "Ġs",
        "k"
      ],
      [
        "Ġs",
        "ame"
      ],
      [
        "Ġs",
        "ick"
      ],
      [
        "Ġs",
        "ign"
      ],
      [
        "Ġw",
        "is"
      ],
      [
        "Ġw",
        "all"
      ],
      [
        "re",
        "ady"
      ],
      [
        "is",
        "f"
      ],
      [
        "Ġc",
        "ast"
      ],
      [
        "ir",
        "th"
      ],
      [
        "ch",
        "io"
      ],
      [
        "Ġfor",
        "b"
      ],
      [
        "Ġfor",
        "get"
      ],
      [
        "oo",
        "f"
      ],
      [
        "ri",
        "es"
      ],
      [
        "Ġre",
        "g"
      ],
      [
        "ur",
        "p"
      ],
      [
        "ea",
        "st"
      ],
      [
        "Ġv",
        "en"
      ],
      [
        "Ġthem",
        "selves"
      ],
      [
        "ĠB",
        "ianca"
      ],
      [
        "Ġwor",
        "se"
      ],
      [
        "ĠP",
        "om"
      ],
      [
        "Ġtoo",
        "k"
      ],
      [
        "Ġpo",
        "ison"
      ],
      [
        "Ġal",
        "ong"
      ],
      [
        "Ġri",
        "ch"
      ],
      [
        "Ġbre",
        "ast"
      ],
      [
        "ran",
        "io"
      ],
      [
        "Ġcons",
        "ul"
      ],
      [
        "RAN",
        "DA"
      ],
      [
        "MI",
        "RANDA"
      ],
      [
        "tw",
        "as"
      ],
      [
        "tw",
        "ere"
      ],
      [
        "Ġche",
        "er"
      ],
      [
        "Ġpat",
        "ience"
      ],
      [
        "Ġmer",
        "ry"
      ],
      [
        "Ġord",
        "er"
      ],
      [
        "etru",
        "chio"
      ],
      [
        "ufid",
        "ius"
      ],
      [
        "H",
        "N"
      ],
      [
        "M",
        "essenger"
      ],
      [
        "O",
        "HN"
      ],
      [
        "S",
        "A"
      ],
      [
        "S",
        "ON"
      ],
      [
        "S",
        "ervant"
      ],
      [
        "l",
        "st"
      ],
      [
        "o",
        "in"
      ],
      [
        "t",
        "ing"
      ],
      [
        "Ġm",
        "outh"
      ],
      [
        "Ġw",
        "ed"
      ],
      [
        "Ġb",
        "ad"
      ],
      [
        "Ġb",
        "ook"
      ],
      [
        "Ġf",
        "our"
      ],
      [
        "Ġd",
        "u"
      ],
      [
        "ĠI",
        "f"
      ],
      [
        "Ġg",
        "ave"
      ],
      [
        "ch",
        "m"
      ],
      [
        "Ġis",
        "sue"
      ],
      [
        "as",
        "h"
      ],
      [
        "Ġli",
        "ber"
      ],
      [
        "ver",
        "n"
      ],
      [
        "Ġse",
        "lf"
      ],
      [
        "ion",
        "s"
      ],
      [
        "row",
        "s"
      ],
      [
        "all",
        "y"
      ],
      [
        "Ġoff",
        "ice"
      ],
      [
        "Ġal",
        "ready"
      ],
      [
        "Be",
        "ing"
      ],
      [
        "Ġmo",
        "ve"
      ],
      [
        "Ġvirt",
        "ue"
      ],
      [
        "Ġgi",
        "ven"
      ],
      [
        "Ġbat",
        "tle"
      ],
      [
        "ĠHere",
        "ford"
      ],
      [
        "Ġmorn",
        "ing"
      ],
      [
        "Ġfur",
        "ther"
      ],
      [
        "M",
        "ake"
      ],
      [
        "S",
        "ince"
      ],
      [
        "m",
        "ber"
      ],
      [
        "n",
        "k"
      ],
      [
        "p",
        "es"
      ],
      [
        "r",
        "ist"
      ],
      [
        "s",
        "he"
      ],
      [
        "u",
        "ous"
      ],
      [
        "u",
        "sed"
      ],
      [
        "Ġt",
        "a"
      ],
      [
        "Ġa",
        "c"
      ],
      [
        "ou",
        "n"
      ],
      [
        "Ġw",
        "ise"
      ],
      [
        "Ġb",
        "urn"
      ],
      [
        "or",
        "ge"
      ],
      [
        "Ġf",
        "rown"
      ],
      [
        "Ġf",
        "east"
      ],
      [
        "Ġd",
        "ire"
      ],
      [
        "es",
        "h"
      ],
      [
        "Ġl",
        "ad"
      ],
      [
        "Ġp",
        "ay"
      ],
      [
        "an",
        "us"
      ],
      [
        "Ġg",
        "ro"
      ],
      [
        "at",
        "s"
      ],
      [
        "Ġre",
        "d"
      ],
      [
        "Ġso",
        "ft"
      ],
      [
        "ea",
        "ch"
      ],
      [
        "Ġsu",
        "cc"
      ],
      [
        "ic",
        "er"
      ],
      [
        "Ġbl",
        "ack"
      ],
      [
        "Ġgo",
        "es"
      ],
      [
        "Ġsw",
        "orn"
      ],
      [
        "ĠS",
        "ignior"
      ],
      [
        "el",
        "come"
      ],
      [
        "Ġpro",
        "p"
      ],
      [
        "Ġson",
        "s"
      ],
      [
        "Ġfo",
        "e"
      ],
      [
        "Ġex",
        "t"
      ],
      [
        "ĠT",
        "ower"
      ],
      [
        "Be",
        "fore"
      ],
      [
        "Ġtr",
        "ou"
      ],
      [
        "Ġbeg",
        "g"
      ],
      [
        "Ġbeg",
        "in"
      ],
      [
        "Ġcons",
        "ent"
      ],
      [
        "dd",
        "en"
      ],
      [
        "Ġsold",
        "iers"
      ],
      [
        "Ġrequ",
        "est"
      ],
      [
        "ĠLu",
        "centio"
      ],
      [
        "Ġbetw",
        "een"
      ],
      [
        "Ġquar",
        "rel"
      ],
      [
        "Ġsat",
        "isf"
      ],
      [
        "chm",
        "ond"
      ],
      [
        "A",
        "S"
      ],
      [
        "C",
        "all"
      ],
      [
        "I",
        "R"
      ],
      [
        "M",
        "ust"
      ],
      [
        "N",
        "T"
      ],
      [
        "R",
        "e"
      ],
      [
        "S",
        "w"
      ],
      [
        "S",
        "uch"
      ],
      [
        "g",
        "are"
      ],
      [
        "i",
        "res"
      ],
      [
        "u",
        "res"
      ],
      [
        "u",
        "ng"
      ],
      [
        "u",
        "ff"
      ],
      [
        "Ġ",
        "For"
      ],
      [
        "he",
        "m"
      ],
      [
        "Ġs",
        "ervant"
      ],
      [
        "Ġb",
        "ar"
      ],
      [
        "Ġd",
        "ro"
      ],
      [
        "Ġd",
        "ark"
      ],
      [
        "Ġc",
        "r"
      ],
      [
        "Ġc",
        "ase"
      ],
      [
        "Ġth",
        "ri"
      ],
      [
        "ar",
        "is"
      ],
      [
        "ot",
        "s"
      ],
      [
        "st",
        "and"
      ],
      [
        "ow",
        "ers"
      ],
      [
        "ir",
        "m"
      ],
      [
        "Ġlo",
        "ves"
      ],
      [
        "ĠC",
        "h"
      ],
      [
        "end",
        "s"
      ],
      [
        "Ġbl",
        "ess"
      ],
      [
        "em",
        "pt"
      ],
      [
        "Ġthen",
        "ce"
      ],
      [
        "Ġwor",
        "th"
      ],
      [
        "ĠA",
        "ufidius"
      ],
      [
        "CA",
        "TES"
      ],
      [
        "Ġex",
        "p"
      ],
      [
        "aw",
        "d"
      ],
      [
        "Ġpres",
        "ence"
      ],
      [
        "Ġpri",
        "v"
      ],
      [
        "Un",
        "less"
      ],
      [
        "Al",
        "as"
      ],
      [
        "Ġwound",
        "s"
      ],
      [
        "Ġdanger",
        "ous"
      ],
      [
        "Bec",
        "ause"
      ],
      [
        "gare",
        "t"
      ],
      [
        "CATES",
        "BY"
      ],
      [
        "L",
        "Y"
      ],
      [
        "o",
        "ll"
      ],
      [
        "t",
        "hat"
      ],
      [
        "Ġs",
        "igh"
      ],
      [
        "Ġb",
        "le"
      ],
      [
        "on",
        "a"
      ],
      [
        "on",
        "our"
      ],
      [
        "Ġh",
        "ot"
      ],
      [
        "Ġg",
        "ot"
      ],
      [
        "Ġin",
        "ter"
      ],
      [
        "Ġu",
        "nd"
      ],
      [
        "Ġe",
        "v"
      ],
      [
        "Ġsu",
        "m"
      ],
      [
        "Ġne",
        "ither"
      ],
      [
        "Ġv",
        "ict"
      ],
      [
        "em",
        "n"
      ],
      [
        "ĠL",
        "ond"
      ],
      [
        "ĠS",
        "ir"
      ],
      [
        "ĠV",
        "ols"
      ],
      [
        "ci",
        "ent"
      ],
      [
        "Ġwar",
        "s"
      ],
      [
        "Ġfl",
        "atter"
      ],
      [
        "Ġmight",
        "y"
      ],
      [
        "Ġres",
        "pect"
      ],
      [
        "Ġdre",
        "ad"
      ],
      [
        "Ġbri",
        "de"
      ],
      [
        "Ġbri",
        "ef"
      ],
      [
        "Ġthr",
        "one"
      ],
      [
        "Ġvo",
        "ice"
      ],
      [
        "Ġem",
        "b"
      ],
      [
        "apt",
        "ist"
      ],
      [
        "Ġden",
        "y"
      ],
      [
        "Ġspo",
        "ke"
      ],
      [
        "Ġwat",
        "er"
      ],
      [
        "Ġvis",
        "it"
      ],
      [
        "ĠLond",
        "on"
      ],
      [
        "B",
        "oth"
      ],
      [
        "B",
        "IAN"
      ],
      [
        "J",
        "OHN"
      ],
      [
        "L",
        "est"
      ],
      [
        "R",
        "ome"
      ],
      [
        "R",
        "EY"
      ],
      [
        "Y",
        "es"
      ],
      [
        "e",
        "orge"
      ],
      [
        "i",
        "p"
      ],
      [
        "i",
        "ant"
      ],
      [
        "m",
        "and"
      ],
      [
        "u",
        "ght"
      ],
      [
        "Ġ",
        "est"
      ],
      [
        "Ġm",
        "al"
      ],
      [
        "Ġm",
        "ortal"
      ],
      [
        "Ġb",
        "ow"
      ],
      [
        "Ġb",
        "ab"
      ],
      [
        "Ġf",
        "ra"
      ],
      [
        "er",
        "n"
      ],
      [
        "Ġh",
        "ur"
      ],
      [
        "Ġto",
        "wn"
      ],
      [
        "Ġof",
        "ten"
      ],
      [
        "Ġha",
        "ving"
      ],
      [
        "ri",
        "ght"
      ],
      [
        "id",
        "ed"
      ],
      [
        "Ġsu",
        "dden"
      ],
      [
        "ru",
        "m"
      ],
      [
        "Ġan",
        "cient"
      ],
      [
        "Ġsp",
        "eech"
      ],
      [
        "Ġv",
        "ow"
      ],
      [
        "ĠG",
        "eorge"
      ],
      [
        "Ġlove",
        "d"
      ],
      [
        "Ġking",
        "s"
      ],
      [
        "ĠB",
        "aptist"
      ],
      [
        "Ġwor",
        "ship"
      ],
      [
        "LI",
        "A"
      ],
      [
        "ĠP",
        "aris"
      ],
      [
        "Ġsa",
        "fe"
      ],
      [
        "ire",
        "d"
      ],
      [
        "aint",
        "ed"
      ],
      [
        "BA",
        "L"
      ],
      [
        "ĠMar",
        "garet"
      ],
      [
        "Ġprince",
        "ly"
      ],
      [
        "BR",
        "A"
      ],
      [
        "Ġcha",
        "mber"
      ],
      [
        "Ġseem",
        "s"
      ],
      [
        "be",
        "y"
      ],
      [
        "Ġbu",
        "y"
      ],
      [
        "Ġdeed",
        "s"
      ],
      [
        "Wh",
        "om"
      ],
      [
        "VER",
        "S"
      ],
      [
        "ĠRi",
        "chmond"
      ],
      [
        "Ġbit",
        "ter"
      ],
      [
        "BIAN",
        "CA"
      ],
      [
        "B",
        "OW"
      ],
      [
        "W",
        "elcome"
      ],
      [
        "k",
        "ing"
      ],
      [
        "l",
        "s"
      ],
      [
        "l",
        "ish"
      ],
      [
        "m",
        "b"
      ],
      [
        "r",
        "t"
      ],
      [
        "s",
        "p"
      ],
      [
        "u",
        "ra"
      ],
      [
        "Ġ",
        "Thou"
      ],
      [
        "Ġ",
        "This"
      ],
      [
        "Ġf",
        "res"
      ],
      [
        "Ġf",
        "etch"
      ],
      [
        "Ġc",
        "ol"
      ],
      [
        "Ġc",
        "ross"
      ],
      [
        "Ġc",
        "oward"
      ],
      [
        "es",
        "sed"
      ],
      [
        "Ġl",
        "im"
      ],
      [
        "Ġp",
        "en"
      ],
      [
        "ot",
        "ion"
      ],
      [
        "at",
        "ed"
      ],
      [
        "ur",
        "ch"
      ],
      [
        "Ġkn",
        "ock"
      ],
      [
        "ant",
        "age"
      ],
      [
        "one",
        "y"
      ],
      [
        "Ġpr",
        "ot"
      ],
      [
        "ĠG",
        "AU"
      ],
      [
        "ĠL",
        "ady"
      ],
      [
        "ĠS",
        "aint"
      ],
      [
        "ĠS",
        "ervant"
      ],
      [
        "Ġking",
        "dom"
      ],
      [
        "ĠP",
        "l"
      ],
      [
        "Ġsa",
        "c"
      ],
      [
        "EL",
        "BOW"
      ],
      [
        "Ġhead",
        "s"
      ],
      [
        "Ġsc",
        "orn"
      ],
      [
        "Ġra",
        "ge"
      ],
      [
        "Ġapp",
        "ear"
      ],
      [
        "Ġle",
        "ad"
      ],
      [
        "Ġwit",
        "ness"
      ],
      [
        "RI",
        "VERS"
      ],
      [
        "Ġpat",
        "ient"
      ],
      [
        "Ġprom",
        "ise"
      ],
      [
        "Ġlam",
        "ent"
      ],
      [
        "Ġval",
        "iant"
      ],
      [
        "ĠIs",
        "ab"
      ],
      [
        "Sp",
        "eak"
      ],
      [
        "Ġsucc",
        "ess"
      ],
      [
        "ĠBaptist",
        "a"
      ],
      [
        "ĠGAU",
        "NT"
      ],
      [
        "B",
        "es"
      ],
      [
        "E",
        "re"
      ],
      [
        "G",
        "UE"
      ],
      [
        "H",
        "old"
      ],
      [
        "T",
        "Y"
      ],
      [
        "c",
        "y"
      ],
      [
        "c",
        "oun"
      ],
      [
        "n",
        "own"
      ],
      [
        "s",
        "per"
      ],
      [
        "w",
        "ill"
      ],
      [
        "x",
        "ford"
      ],
      [
        "Ġ",
        "KING"
      ],
      [
        "Ġ",
        "ign"
      ],
      [
        "Ġa",
        "ction"
      ],
      [
        "Ġb",
        "ro"
      ],
      [
        "Ġb",
        "awd"
      ],
      [
        "it",
        "ies"
      ],
      [
        "Ġc",
        "le"
      ],
      [
        "Ġc",
        "reat"
      ],
      [
        "Ġc",
        "ap"
      ],
      [
        "Ġl",
        "ack"
      ],
      [
        "Ġth",
        "row"
      ],
      [
        "Ġo",
        "w"
      ],
      [
        "Ġo",
        "pp"
      ],
      [
        "Ġg",
        "all"
      ],
      [
        "Ġfor",
        "ward"
      ],
      [
        "Ġe",
        "at"
      ],
      [
        "Ġk",
        "ins"
      ],
      [
        "The",
        "ir"
      ],
      [
        "if",
        "f"
      ],
      [
        "Ġan",
        "g"
      ],
      [
        "Ġv",
        "iol"
      ],
      [
        "ant",
        "ag"
      ],
      [
        "Ġpr",
        "in"
      ],
      [
        "Ġpr",
        "ithee"
      ],
      [
        "ĠM",
        "y"
      ],
      [
        "Ġwas",
        "h"
      ],
      [
        "ort",
        "ens"
      ],
      [
        "ak",
        "en"
      ],
      [
        "ĠP",
        "etruchio"
      ],
      [
        "Ġoff",
        "er"
      ],
      [
        "Ġlea",
        "st"
      ],
      [
        "Ġsl",
        "ave"
      ],
      [
        "Ġfl",
        "esh"
      ],
      [
        "ĠT",
        "ranio"
      ],
      [
        "Ġpre",
        "pare"
      ],
      [
        "Ġpray",
        "ers"
      ],
      [
        "the",
        "n"
      ],
      [
        "Ġapp",
        "ro"
      ],
      [
        "TA",
        "GUE"
      ],
      [
        "Ġtri",
        "ump"
      ],
      [
        "Ġmo",
        "on"
      ],
      [
        "Ġcomp",
        "l"
      ],
      [
        "itt",
        "ed"
      ],
      [
        "Ġtrib",
        "unes"
      ],
      [
        "Ġdr",
        "ink"
      ],
      [
        "ĠCh",
        "rist"
      ],
      [
        "Rome",
        "o"
      ],
      [
        "ortens",
        "io"
      ],
      [
        "Y",
        "ea"
      ],
      [
        "b",
        "it"
      ],
      [
        "b",
        "ut"
      ],
      [
        "e",
        "es"
      ],
      [
        "j",
        "oy"
      ],
      [
        "l",
        "er"
      ],
      [
        "o",
        "or"
      ],
      [
        "o",
        "hem"
      ],
      [
        "v",
        "est"
      ],
      [
        "Ġ",
        "id"
      ],
      [
        "Ġs",
        "ur"
      ],
      [
        "Ġm",
        "id"
      ],
      [
        "in",
        "es"
      ],
      [
        "Ġf",
        "ie"
      ],
      [
        "Ġd",
        "est"
      ],
      [
        "Ġn",
        "ay"
      ],
      [
        "Ġth",
        "ither"
      ],
      [
        "Ġh",
        "ide"
      ],
      [
        "at",
        "har"
      ],
      [
        "Ġbe",
        "ast"
      ],
      [
        "le",
        "y"
      ],
      [
        "Ġre",
        "b"
      ],
      [
        "ra",
        "w"
      ],
      [
        "al",
        "s"
      ],
      [
        "al",
        "th"
      ],
      [
        "ck",
        "s"
      ],
      [
        "th",
        "umber"
      ],
      [
        "ho",
        "st"
      ],
      [
        "ast",
        "ers"
      ],
      [
        "fe",
        "it"
      ],
      [
        "ak",
        "ed"
      ],
      [
        "pe",
        "y"
      ],
      [
        "Ġal",
        "most"
      ],
      [
        "ull",
        "y"
      ],
      [
        "Ġsc",
        "ar"
      ],
      [
        "Ġsm",
        "all"
      ],
      [
        "Ġpresent",
        "ly"
      ],
      [
        "Ġfault",
        "s"
      ],
      [
        "Ġdep",
        "art"
      ],
      [
        "Ġsec",
        "ret"
      ],
      [
        "Ġsubject",
        "s"
      ],
      [
        "Ġdef",
        "end"
      ],
      [
        "Ġposs",
        "ess"
      ],
      [
        "athar",
        "ina"
      ],
      [
        "thumber",
        "land"
      ],
      [
        "C",
        "on"
      ],
      [
        "D",
        "I"
      ],
      [
        "G",
        "I"
      ],
      [
        "I",
        "EL"
      ],
      [
        "P",
        "l"
      ],
      [
        "V",
        "IR"
      ],
      [
        "W",
        "hi"
      ],
      [
        "a",
        "ul"
      ],
      [
        "h",
        "ind"
      ],
      [
        "y",
        "ing"
      ],
      [
        "Ġt",
        "ear"
      ],
      [
        "Ġw",
        "ert"
      ],
      [
        "re",
        "y"
      ],
      [
        "Ġb",
        "en"
      ],
      [
        "Ġb",
        "ase"
      ],
      [
        "Ġb",
        "irth"
      ],
      [
        "Ġf",
        "ill"
      ],
      [
        "Ġf",
        "ond"
      ],
      [
        "Ġl",
        "ab"
      ],
      [
        "ar",
        "l"
      ],
      [
        "Ġp",
        "ain"
      ],
      [
        "ing",
        "er"
      ],
      [
        "Ġbe",
        "c"
      ],
      [
        "Ġfor",
        "m"
      ],
      [
        "Ġe",
        "as"
      ],
      [
        "Ġst",
        "ru"
      ],
      [
        "Ġli",
        "ving"
      ],
      [
        "ru",
        "e"
      ],
      [
        "th",
        "ough"
      ],
      [
        "Ġgood",
        "ly"
      ],
      [
        "Ġwhe",
        "nce"
      ],
      [
        "ĠG",
        "REY"
      ],
      [
        "Ġus",
        "urp"
      ],
      [
        "ci",
        "ence"
      ],
      [
        "Ġtru",
        "mp"
      ],
      [
        "Ġhear",
        "ing"
      ],
      [
        "Ġsl",
        "aughter"
      ],
      [
        "Ġper",
        "form"
      ],
      [
        "Ġwr",
        "it"
      ],
      [
        "per",
        "ate"
      ],
      [
        "led",
        "ge"
      ],
      [
        "St",
        "ay"
      ],
      [
        "St",
        "and"
      ],
      [
        "Ġchan",
        "ce"
      ],
      [
        "PER",
        "DI"
      ],
      [
        "Ġvirt",
        "uous"
      ],
      [
        "Ġquick",
        "ly"
      ],
      [
        "MON",
        "TAGUE"
      ],
      [
        "Ġdam",
        "n"
      ],
      [
        "ura",
        "l"
      ],
      [
        "ohem",
        "ia"
      ],
      [
        "GI",
        "LIA"
      ],
      [
        "VIR",
        "GILIA"
      ],
      [
        "PERDI",
        "TA"
      ],
      [
        "A",
        "b"
      ],
      [
        "D",
        "oth"
      ],
      [
        "P",
        "eace"
      ],
      [
        "S",
        "ET"
      ],
      [
        "S",
        "LY"
      ],
      [
        "d",
        "ing"
      ],
      [
        "e",
        "em"
      ],
      [
        "g",
        "g"
      ],
      [
        "i",
        "est"
      ],
      [
        "o",
        "ver"
      ],
      [
        "o",
        "ss"
      ],
      [
        "r",
        "or"
      ],
      [
        "y",
        "our"
      ],
      [
        "z",
        "e"
      ],
      [
        "Ġ",
        "ut"
      ],
      [
        "Ġt",
        "or"
      ],
      [
        "Ġa",
        "y"
      ],
      [
        "Ġm",
        "atch"
      ],
      [
        "Ġm",
        "ild"
      ],
      [
        "Ġw",
        "ild"
      ],
      [
        "re",
        "ad"
      ],
      [
        "is",
        "ure"
      ],
      [
        "Ġf",
        "ier"
      ],
      [
        "on",
        "y"
      ],
      [
        "Ġc",
        "a"
      ],
      [
        "Ġc",
        "ertain"
      ],
      [
        "ar",
        "n"
      ],
      [
        "Ġp",
        "u"
      ],
      [
        "Ġp",
        "it"
      ],
      [
        "ing",
        "ly"
      ],
      [
        "se",
        "m"
      ],
      [
        "Ġin",
        "j"
      ],
      [
        "Ġin",
        "s"
      ],
      [
        "Ġin",
        "no"
      ],
      [
        "ed",
        "s"
      ],
      [
        "ed",
        "ant"
      ],
      [
        "Ġu",
        "r"
      ],
      [
        "Ġsha",
        "d"
      ],
      [
        "Th",
        "ink"
      ],
      [
        "Ġkn",
        "ee"
      ],
      [
        "Ġkn",
        "eel"
      ],
      [
        "ast",
        "ard"
      ],
      [
        "ust",
        "om"
      ],
      [
        "Ġbl",
        "ows"
      ],
      [
        "ĠS",
        "t"
      ],
      [
        "ĠO",
        "xford"
      ],
      [
        "Ġqu",
        "iet"
      ],
      [
        "Ġpro",
        "ceed"
      ],
      [
        "ĠP",
        "aul"
      ],
      [
        "Ġhad",
        "st"
      ],
      [
        "Ġoff",
        "ence"
      ],
      [
        "Ġad",
        "m"
      ],
      [
        "Ġple",
        "as"
      ],
      [
        "for",
        "ce"
      ],
      [
        "Ġaf",
        "fection"
      ],
      [
        "Ġsle",
        "w"
      ],
      [
        "IAN",
        "A"
      ],
      [
        "Ġlaw",
        "ful"
      ],
      [
        "Ġgl",
        "ad"
      ],
      [
        "bl",
        "ing"
      ],
      [
        "Ġweep",
        "ing"
      ],
      [
        "MAR",
        "IANA"
      ],
      [
        "Ġsold",
        "ier"
      ],
      [
        "Ġaw",
        "hile"
      ],
      [
        "Ġdeser",
        "ved"
      ],
      [
        "Ġexec",
        "ution"
      ],
      [
        "ĠCoriol",
        "anus"
      ],
      [
        "Ġguilt",
        "y"
      ],
      [
        "Ġpret",
        "ty"
      ],
      [
        "ĠPom",
        "pey"
      ],
      [
        "Ġang",
        "ry"
      ],
      [
        "F",
        "a"
      ],
      [
        "M",
        "ar"
      ],
      [
        "M",
        "aster"
      ],
      [
        "P",
        "AR"
      ],
      [
        "R",
        "A"
      ],
      [
        "V",
        "INCENTIO"
      ],
      [
        "a",
        "wn"
      ],
      [
        "d",
        "ge"
      ],
      [
        "f",
        "ully"
      ],
      [
        "g",
        "ue"
      ],
      [
        "k",
        "ed"
      ],
      [
        "m",
        "ed"
      ],
      [
        "u",
        "al"
      ],
      [
        "v",
        "ol"
      ],
      [
        "z",
        "en"
      ],
      [
        "Ġa",
        "p"
      ],
      [
        "Ġs",
        "hi"
      ],
      [
        "Ġs",
        "ho"
      ],
      [
        "Ġm",
        "ed"
      ],
      [
        "Ġm",
        "od"
      ],
      [
        "Ġw",
        "alk"
      ],
      [
        "Ġf",
        "am"
      ],
      [
        "Ġf",
        "led"
      ],
      [
        "en",
        "ess"
      ],
      [
        "Ġy",
        "ear"
      ],
      [
        "Ġo",
        "b"
      ],
      [
        "Ġo",
        "cc"
      ],
      [
        "Ġha",
        "p"
      ],
      [
        "Ġme",
        "asure"
      ],
      [
        "Ġfor",
        "sw"
      ],
      [
        "ad",
        "ua"
      ],
      [
        "Ġre",
        "ign"
      ],
      [
        "Ġdo",
        "om"
      ],
      [
        "am",
        "es"
      ],
      [
        "Ġno",
        "b"
      ],
      [
        "ru",
        "pt"
      ],
      [
        "Ġour",
        "selves"
      ],
      [
        "Ġfa",
        "vour"
      ],
      [
        "Ġne",
        "ck"
      ],
      [
        "Ġsh",
        "ows"
      ],
      [
        "end",
        "ed"
      ],
      [
        "Ġbl",
        "ow"
      ],
      [
        "Ġgo",
        "vern"
      ],
      [
        "Ġwould",
        "st"
      ],
      [
        "Ġlet",
        "ters"
      ],
      [
        "Ġun",
        "c"
      ],
      [
        "Ġun",
        "k"
      ],
      [
        "Ġwor",
        "st"
      ],
      [
        "Ġspeak",
        "s"
      ],
      [
        "Ġmar",
        "ch"
      ],
      [
        "igh",
        "b"
      ],
      [
        "ĠK",
        "atharina"
      ],
      [
        "Ġgreat",
        "er"
      ],
      [
        "Ġle",
        "isure"
      ],
[...]
